{"vocab": ["[PAD]", "[CLS]", "[SEP]", "[UNK]", " ", "!", "\"", "#", "$", "%", "&", "'", "(", ")", "*", "+", ",", "-", ".", "/", "0", "1", "2", "3", "4", "5", "6", "7", "8", "9", ":", ";", "<", "=", ">", "?", "@", "[", "\\", "]", "^", "_", "`", "a", "b", "c", "d", "e", "f", "g", "h", "i", "j", "k", "l", "m", "n", "o", "p", "q", "r", "s", "t", "u", "v", "w", "x", "y", "z", "|", "}", "~", "\u00a2", "\u00a3", "\u00a7", "\u00b0", "\u00d7", "\u00df", "\u00e0", "\u00e1", "\u00e2", "\u00e3", "\u00e4", "\u00e5", "\u00e6", "\u00e7", "\u00e8", "\u00e9", "\u00ea", "\u00ec", "\u00ed", "\u00ee", "\u00ef", "\u00f0", "\u00f1", "\u00f2", "\u00f3", "\u00f4", "\u00f6", "\u00f7", "\u00f8", "\u00fa", "\u00fc", "\u00fd", "\u0101", "\u010d", "\u0113", "\u011f", "\u012b", "\u0131", "\u0142", "\u0144", "\u014b", "\u014d", "\u0151", "\u0153", "\u015f", "\u0161", "\u016b", "\u017c", "\u01ce", "\u01d0", "\u01d2", "\u01dd", "\u0250", "\u0251", "\u0252", "\u0254", "\u0255", "\u0259", "\u025b", "\u025c", "\u0261", "\u0263", "\u0266", "\u0268", "\u026a", "\u0272", "\u0274", "\u0275", "\u027e", "\u0281", "\u0282", "\u0283", "\u028a", "\u028c", "\u0292", "\u0294", "\u029d", "\u02bb", "\u02c0", "\u02c8", "\u02cc", "\u02d0", "\u0300", "\u0301", "\u0303", "\u0304", "\u030c", "\u0329", "\u032a", "\u032f", "\u0361", "\u03ac", "\u03ad", "\u03af", "\u03b1", "\u03b2", "\u03b3", "\u03b4", "\u03b5", "\u03b6", "\u03b7", "\u03b8", "\u03ba", "\u03bb", "\u03bc", "\u03bd", "\u03be", "\u03bf", "\u03c0", "\u03c1", "\u03c2", "\u03c3", "\u03c4", "\u03c5", "\u03c6", "\u03c7", "\u03c9", "\u03cc", "\u03cd", "\u0430", "\u0432", "\u0434", "\u0435", "\u0438", "\u043a", "\u043d", "\u043e", "\u0441", "\u0442", "\u0447", "\u044c", "\u0456", "\u05b2", "\u05b4", "\u05b6", "\u05b7", "\u05b9", "\u05bc", "\u05c1", "\u05d1", "\u05d2", "\u05d3", "\u05d4", "\u05d5", "\u05d6", "\u05d9", "\u05db", "\u05dd", "\u05e1", "\u05e2", "\u05e4", "\u05e8", "\u05e9", "\u0627", "\u0628", "\u0629", "\u062a", "\u062c", "\u062d", "\u062e", "\u062f", "\u0630", "\u0631", "\u0632", "\u0633", "\u0635", "\u0639", "\u063a", "\u0641", "\u0643", "\u0644", "\u0645", "\u0646", "\u0647", "\u0648", "\u064a", "\u0679", "\u0686", "\u06a9", "\u06af", "\u06be", "\u06c1", "\u06cc", "\u06d2", "\u0917", "\u0926", "\u092e", "\u0941", "\u094d", "\u0e01", "\u0e17", "\u0e19", "\u0e22", "\u0e27", "\u0e28", "\u0e2b", "\u0e2d", "\u0e31", "\u0e32", "\u0e34", "\u0e48", "\u1e25", "\u1ed1", "\u1ed3", "\u1f00", "\u1f01", "\u1f11", "\u1f15", "\u1f30", "\u1f66", "\u1f76", "\u1f86", "\u1fd6", "\u200b", "\u200e", "\u200f", "\u2010", "\u202c", "\u2032", "\u2044", "\u20ac", "\u20b9", "\u2118", "\u2192", "\u2212", "\u2248", "\u22c5", "\u2655", "\u265b", "\u2660", "\u2663", "\u2665", "\u266f", "\u27e8", "\u27e9", "\u3044", "\u3052", "\u306e", "\u306f", "\u3088", "\u3092", "\u30a2", "\u30a4", "\u30a6", "\u30a8", "\u30a9", "\u30ab", "\u30b0", "\u30b1", "\u30b3", "\u30b8", "\u30b9", "\u30bb", "\u30bf", "\u30c1", "\u30c3", "\u30c7", "\u30c8", "\u30ca", "\u30ce", "\u30d0", "\u30d1", "\u30d3", "\u30d4", "\u30d5", "\u30d6", "\u30d7", "\u30d9", "\u30dc", "\u30dd", "\u30e2", "\u30e3", "\u30e5", "\u30e8", "\u30e9", "\u30ed", "\u30f3", "\u30f4", "\u30fb", "\u30fc", "\u4e00", "\u4e0a", "\u4e2d", "\u4f1a", "\u4f7f", "\u51a5", "\u528d", "\u540d", "\u541b", "\u56fd", "\u5927", "\u5929", "\u592e", "\u5ac1", "\u5b57", "\u5bc4", "\u5bf6", "\u5bfc", "\u5c0e", "\u5f0f", "\u5f71", "\u5fc3", "\u6249", "\u624b", "\u6367", "\u65e5", "\u6642", "\u6703", "\u672c", "\u682a", "\u683c", "\u6a19", "\u6cd5", "\u6d77", "\u6e2f", "\u6e96", "\u6ef4", "\u718a", "\u732b", "\u7363", "\u7387", "\u751f", "\u793e", "\u81d3", "\u81e5", "\u85cf", "\u864e", "\u9752", "\u97ff", "\u9999", "\u9b54", "\u9ede", "\u9f8d", "\ufeff", "e ", "s ", "th", "t ", "d ", "in", "er", "an", "y ", "on", "the ", "or", "en", "o ", "re", ", ", "ar", "a ", "al", "ou", ". ", "ing", "st", "ed ", "and ", "ing ", "ic", "of", "to ", "at", "er ", "it", "on ", "in ", "of ", "om", "as ", "is ", "es ", "ch", "el", "il", "at ", "es", "or ", "i ", "ac", "as", "an ", "is", "ro", "am", "l ", "pl", "ec", "oo", "ur", "ir", "ti", "ve ", "un", "us", "for ", "ri", "it ", "en ", "k ", "ly ", "ha", "ow", "th ", "al ", "ol", "gh", "p ", "was ", "wh", "ay ", "le", "ne", "ad", "wi", "se", "li", "the", "ver", "be", "si", "\\n", "ag", "bu", "ay", "ter", "com", "that ", "ere ", "ab", "ent ", "ati", "sh", "with ", "de", "ap", "di", "no", "m ", "lo", "'s ", ".  ", "ex", "- ", "qu", "ts ", "sp", "le ", "ak", "af", "this ", "su", "ed", "our", "mo", "tr", ") ", "fr", "st ", "n ", "w ", "day ", "f ", "are ", "con", "em", "h ", "op", "for", "ter ", "but ", "out ", "ar ", "ers ", "oun", "ce ", "of the ", "ch ", "ser", "#3", "om ", "#39", "#39;", "my ", "ood ", "vi", "wor", "in the ", "pre", "have ", "ot", "pro", "ul", "by ", "..", "pr", "ver ", "s, ", "ge", "igh", "one ", "not ", "ice ", "ent", "they ", "its ", "we", "ld ", "you", "ai", "we ", "all ", "be ", "me ", "pe", "ic ", "per", "e, ", "po", "from ", "and", "to", "plac", "ally ", "so ", "ill ", "the f", "end", "g ", "ye", "est ", "our ", "gre", "you ", "ir ", "has ", "me", "\\n\\n", "all", "ow ", "had ", "go", "'t ", "ain", "gr", "ed to ", "ate ", "#39;s ", "au", "s. ", "ast ", "00", "oc", "ation", "ad ", "ast", "ould ", "ation ", "serv", "new ", "ve", "ke", "were ", "par", "fe", "se ", "id", "ough", "str", "ks ", "up ", "mor", "br", "ther ", "av", "te", "day", "ke ", "por", "mon", "man", "tw", "cl", ". the ", "mar", "el ", "ut", ": ", "very ", "us ", "fin", "! ", "im", "co", "som", "he", "fri", "bl", "ity ", "sc", "ted ", "bo", "gi", "0 ", "ust ", "um", "place ", "after ", "their ", "der", ", and ", "min", "ess ", "uc", "tion ", "will ", "dr", "il ", "ame ", "dis", "ant ", "ev", "ood", "uter", "aw", "rec", "sai", "t;", "ting ", "his ", "ge ", "comp", "cr", "ill", "off", "iti", "e. ", "s and ", "jo", "sec", "ack ", "ph", "de ", "when ", "reuter", "fi", "fir", "ich ", "more ", "ell", "like ", "about ", ", the ", "lin", "to the ", "been ", "stor", "here ", "mak", "ty ", "am ", "good ", "king ", "on the ", "over ", "ant", "fl", "red ", "ely ", "ked ", "time ", ", but ", "bi", "just ", "own ", "there ", "do", "s.", "if ", "n't ", "i'", "said ", "pi", "tion", "get ", "x ", ". i ", "dec", "thing ", "up", "ple ", "able ", "use ", "gu", "ard ", "other ", "inter", "mil", "wee", "old ", "sur", "it was ", "ite ", "ays ", "end ", "tu", "ali", "ain ", "he ", "which ", "y, ", "tur", "der ", "ight ", "inc", "ough ", "than ", "ell ", "ment ", "bec", "great ", "s) ", "for the ", "ated ", "two ", "s to ", "5 ", "ste", "a c", "star", "ound ", "a s", "anc", "a b", "would ", "ick", "b ", "\\\"", "some ", "service ", "wa", "the b", "loc", "att", "tak", "hi", "az", "ass", "age ", "quot", "s of ", "est", "2 ", "int", "ies ", "ong ", "no ", "any ", "ther", "out", "ited ", "most ", "what ", "ence ", "cor", "ing the ", "ici", "(reuter", "(reuters) ", "go ", "pric", "tri", "ous ", "and the ", "del", "year", "tim", "loo", "can ", "ish ", "fre", "sal", "ann", "ile ", "ing to ", "cu", "it's ", "who ", "peo", "only ", "ed the ", "don", "car", "vie", ".\\n\\n", "des", "high", "comm", "char", "ig", "are", "oll", "at the ", "exp", "ade ", "is a ", "tor", "-- ", "ho", "thre", "ack", "ap ", "es, ", "ds ", "air", "fu", "in a ", "ist", "bet", "ause ", "pp", "back ", "itt", "ff", "first ", "ros", "ue ", "fil", "this place ", "bus", "ail", "for a ", "really ", "row", "ever", "enc", "food ", "; ", "ful", "ang", "4 ", "hel", "ance ", "rest", "mic", "un ", "win", "ates ", "ber ", "ud", "...", "' ", "ster", "elec", "ght ", "ess", "pres", "coun", "vis", "amer", "own", "kn", "last ", "pu", "because ", "ber", "duc", "ary ", "&l", "nation", "ed a ", "&lt;", "her", "so", "ese ", "bur", "\\$", "200", "esday ", "eng", "mu", "sid", "war", "ed by ", "1 ", "et", "i was ", "t of ", "pos", "form", "ma", "spec", "aq", "ace ", "ings ", "ash", "e.", "ents ", "gt;", "che", "even ", "your ", "order", "&gt;", "e-", "3 ", "ear", "ep", "americ", "can", "over", "off ", "bas", "again", "friend", "aur", "es and ", "cont", "nor", "ra", "bre", "ion ", "some", "way ", "could ", "play", "ful ", "u.", "ian ", "iraq", "people ", "als ", "atur", "a, ", "hom", "ating ", "good", "world ", "cre", "(reuters) - ", "pol", "sl", "a l", "restaur", "thr", "ning ", "shi", "chi", "got ", "grou", "gg", "19", "pri", "into ", "tre", "sou", "with the ", "love ", "gen", "ical ", "enti", "du", "ed in ", "went ", "wed", "ble ", "do ", "ving ", "sup", "din", "sy", "mi", "wr", "try ", "mis", "man ", "ans ", "ons ", "(ap", "eu", "sol", "ways ", "chin", "down ", "also ", "line ", "(ap) ", "clo", "repor", "oil ", "sion ", "too", "ial ", "befor", "the food ", "wat", "mus", "sin", "col", "wal", "less ", "with a ", "it is ", "may ", "ittle ", "united ", "ase ", "exper", "stri", "es to ", "day, ", "ach ", "servic", "i've ", "expec", "oft ", "seas", "lion ", "presid", "et ", "t, ", "cle", "20", "dn't ", "  ", "e.  ", "veg", "of a ", "ish", "ia ", "men", "pret", "ric", "ap - ", "ine ", "yor", "make ", "(ap) ap - ", "three ", "much ", "la", "ven", "sha", "i have ", "revie", "secon", "from the ", "y. ", "bar", "made ", "urs", "ous", "prof", "sel", "against ", "tt", "too ", "sun", "new yor", "!!", "while ", "never ", "before ", "many ", "movi", "a h", "the fir", "u.s. ", "ong", "ever ", "sm", "exc", "don't ", "ved ", "ise ", "wedn", "new", "iz", "s in ", "plo", "ves ", "national ", "stoc", "thurs", "side ", "any", "ban", "sear", "and i ", "lar", "son ", "ach", "year ", "re ", "tast", "with", "nex", "t to ", "ding ", "come ", "since ", "cap", "staf", "where ", "bel", "fac", "ble", "u ", "sch", "every", "c ", "the first ", "call", "always ", "ry ", "micros", "company ", "ink ", "night ", "sig", "came ", "pretty ", "ick ", "how ", "acc", "indi", "hol", "tal", "ath", "ations ", "t. ", "quar", "experi", "... ", "to be ", "her ", "eas", "ing a ", "them ", "she ", "produc", "ure ", "ps ", "wait", "new york ", "fun", "zz", "res ", "take ", "get", "lead", "unch ", "vic", "ok", "cour", "kill", "food", "group ", "son", "ist ", "6 ", "mem", "inve", ".  i ", "er, ", "day.", "es. ", "sts ", "work", "ner ", "i'm ", "yester", "work ", "ard", "amp", "y and ", "gover", "land ", "tic", "mat", "compl", "a f", "id ", "ju", "still ", "? ", "gam", "res", "poin", "top ", "vel", "secur", "cas", "eral ", "avor", "prices ", "net", "euro", "game ", "sus", "coo", "marke", "nice ", "sum", "did ", "minut", "ave ", "on a ", "is the ", "right ", "week", "ton ", "hou", "ty", "ants ", "say ", "american ", "appe", "8 ", "ought ", "#39; ", ".  the ", "opp", "201", "govern", "film ", "movie ", "boo", "as the ", "next ", "microsoft ", "being ", "dri", "ms ", "few ", "leg", "air ", "another ", "ak ", "ger", "second ", "order ", "now ", "sub", "give ", "amil", "manag", "busin", "i had ", "olo", "les ", "um ", "s - ", "times ", "president ", "bro", "cer", "!  ", "fe ", "thir", "ing, ", "ement ", "ru", "lat", "ei", "tro", "sen", "direc", "read", "stom", "7 ", "big ", "open", "brit", "well ", "hu", "pow", "hal", "as a ", "ef ", "ounc", "quot;", "ft ", "bil", "ref", "if you ", "reas", "hot", "ef", "offici", "incl", "through ", "nigh", "ows ", "d, ", "pic", "on, ", "enter", "ed on ", "see ", "kin", "great", "ition ", "ger ", "monday ", "better ", "satur", "happ", "tuesday ", "\\\" ", "dur", "staff ", "took ", "united st", ". \\n\\n", "friday ", "``", "medi", "chick", "gl", "tions ", "cham", "rol", "restaurant ", "though ", "ni", "rus", "says ", "tain", "both ", "week ", "then ", "more than ", "around ", "didn't ", "ect ", "net ", "pal", "million ", "we were ", "wednesday ", "es.", "amaz", "ta", "ari", "was", "val", "cur", "ound", "b&gt;", "tor ", "pizz", "plan", "iraq ", "one of the ", "recor", "thursday ", "10 ", "the s", "ffer", "es of ", "ned ", "best ", "stre", "uni", "publ", "home ", "down", "security ", "oul", "tive ", "ying ", "to re", "high ", "custom", "ange ", "announc", "fresh", "00 ", "under", "ative ", "d-", "champi", "def", "gy ", "tech", "every ", "jap", "chec", "review", "cent ", "decid", "ball ", "ose ", "see", "little ", "nam", "that the ", "know ", "sive ", "agre", "y.", "act ", "&lt;/", "inc. ", "rele", "pris", "p. ", "spor", "ake ", "e's ", "land", "ten", "open ", "find ", "famil", "unch", "s are ", "wash", "least ", "tar", "that", "ven ", "how", " quot;", "month", "point", "es in ", "ton", "found ", "stand", "ship ", "sure ", "yesterday ", "& ", "dat", "op ", "today ", "won", ", i ", "think ", "head ", "team ", "nov", "beg", "los", "9 ", "state ", "years ", "should ", "have been ", "government ", "betwe", "ym", "season ", "back", "by the ", "e and ", "cen", "want ", "disap", "hop", "ently ", "ob", "between ", "long ", "reg", "room ", "'re ", "break", "defin", "led ", "s.  ", "oper", "drin", "tly ", "enjo", "reuters - ", "(reuters) reuters - ", "at least ", "add", "sof", "d.", ", a ", "deal ", "ot ", "this is ", "they have ", "joh", "has been ", "show", "sw", "10", "over the ", "chicken ", "onom", "consi", "includ", "minist", "austr", "series ", "ep ", "ww", "e of ", "maj", "qui", "hand", "rel", "australi", "mer", "ns ", "table ", "set ", "har", "hor", "vir", "ed and ", "num", "election ", "mid", "a and ", "ligh", "run", "ing and ", "to get ", "ters ", "ten ", "told ", "ba", "ing. ", "ably ", "four ", "suc", "z ", "part", "tit", "differ", "such ", "clu", "lim", "ment", "search ", "seem", "nothing ", "look ", "ors ", "europe", "looking ", "ular ", "doll", "room", "ire ", "ey ", "to a ", "story ", "russi", "techn", "milit", "econom", "under ", "something ", "out of ", "washing", "d. ", "bad ", "ner", "price ", "dro", "emp", "united states ", "fast ", "kid", "ome ", "ly", "main", "former ", "music ", "dic", "ed. ", "sa", "ool ", "sed ", "vo", "stu", "ual ", "well", "does ", "softw", "t-", "app", "sever", "had a ", "os ", "full", "grow", "shor", "leag", "the best ", ", which ", "med", "s the ", "sit", "t.", "star ", "play ", "t and ", "self ", ",00", "retur", "sion", "sk", "conf", "ality ", "able", "when i ", "vegas ", "sand", "chil", "percent ", "ember ", "bor", "dar", "iv", "going ", "south ", "international ", "quot; ", "a. ", "business ", "service was ", "my", "med ", "roc", "victor", "low", "will be ", "canad", "ed, ", "ordered ", "fic", "eg", "p) ", "win ", "hit ", "inv", "friendly ", "wil", "used ", "sul", "all the ", "third ", "\\u", "pur", "delici", "pec", "tun", "arly ", "ended ", "ens ", "experience ", "of its ", "hear", "eat ", "sim", "they were ", "internet ", "contin", "tel", "say", "ared ", "prom", "key ", "ital ", "british ", "speci", "forc", "compan", "phone ", "'' ", "ich", "wom", "worl", "expect", "favor", "ago ", "location ", "es are ", "exec", "help ", "fo", "enough ", "charac", "everything ", "ually ", "indu", "ond", "worth ", "hour", "need", "host", "trad", "law", "life ", "buil", "bs ", "they are ", "larg", "vers", "minister ", "ey", "), ", "pen", "light ", "ster ", "this plac", "shar", "peopl", "sunday ", "hun", "seri", "pat", "sci", "ling ", "lunch ", "wait ", "a little ", "--", "foo", "friend ", "ously ", "spe", "scre", "the c", "without ", "recomm", "a #39;s ", "adv", "help", "ib", "ion", "a few ", "put ", "goo", "isra", "investor", "sing", "those ", "arri", "issu", "left ", "ready ", "free ", "v ", "bom", "per ", "s for ", "perf", "compu", "one of ", "head", "dou", "ris", "charg", "record ", "menu ", "ny ", ",000 ", "clai", "house ", "gets ", "software ", "aid ", "20 ", "ore", "try", "dem", "devel", "technolo", "nic", "pe ", "almost ", "european ", "time", "ending ", "port ", "computer ", "fur", "into the ", "awes", "major ", "once ", "him ", "deli", "several ", "\\u00", "den", "date ", "definit", "makes ", "market ", "ll ", "gener", "ory ", "long", "lead ", "ott", "quarter", "away ", "gar", "person", "north ", "hard ", "ude ", "ale ", "atmo", "hur", "past ", "ze ", ". we ", "recei", "ce", "and a ", "five ", "space ", "run ", "atmosp", "itch", "quick", "te ", "ply ", "tac", "put", "tou", "stem", "corp. ", "decided to ", "definitely ", "ision ", "called ", "lob", "provi", "cri", "cup ", "co ", "post", "hum", "may", "appro", "wind", "sandw", "pot", "ed with ", "emplo", "saturday ", "stat", "unt", "show ", "1.", "righ", "league ", "/full", "pay ", "ash ", "thern ", "ans", "olym", "experienc", "a re", "wasn't ", "largest ", "west ", "sep", "terr", "asked ", "store ", "quarter ", "sty", "actu", "based ", "different ", "vot", "again ", "half ", "/fullquot", "ately ", "must ", "way", "fren", "prob", "city ", "each ", "fiel", "ingly ", "prime ", "band ", "tain ", "ts of ", "close ", "these ", "ics ", "early ", "a new ", "invest", "why ", "s, and ", "stocks ", "happy ", "swee", "cut ", "pop", "execu", "the fil", "fresh ", "ederal ", "scor", "hus", "acks ", "a's ", "foll", "fron", "maker ", "ars ", "fall", "ks", "ass ", "gir", "tail", "you can ", "online ", "i am ", "auth", "kore", "ition", "hour ", "ffe", "els ", "struc", "gan", "search", "let ", "vegas", "feel ", "dram", "john ", "goog", "to s", "review ", "jec", "tex", "beli", "perfor", "victory ", "far ", "er and ", "pleas", "ab ", "chief ", "profit ", "tball ", "cho", "pul", "buffe", "this place is ", "releas", "30 ", "stud", "buy ", "minutes ", "develop", "cali", "would be ", "dy ", "nec", "sing ", "offer", "50 ", "pass", "bar ", "tend", "ston ", "proble", "s. the ", "during ", "hon", "announced ", "car ", "tom", "roll", "dom", "washington ", "quest", "start ", "can't ", "(af", "chang", "coming ", "might ", "ture ", "special ", "pizza ", "mex", "pac", "regi", "super ", "test ", "a lo", "ats ", "so i ", "oci", "known ", "stay", "hotel ", "ah", "ness ", "impres", "bush ", "change ", "bigg", "pt ", "move ", "e. the ", "franc", "ers and ", ".\\n", "action ", "worst ", "until ", "polit", "ran", "san ", "d of ", "that it ", "keep ", "the food was ", "mac", "ed for ", "dinner ", "doc", "near ", "dru", "sales ", "sau", "want", "orig", "at a ", "going to ", "court ", "mc", "o, ", "vari", "offe", "but the ", "possi", "getting ", "family ", "proc", "small ", "sour", "things ", "lik", "them", "quite ", "#39;t ", "party ", "uk", "(afp) ", "bri", "iting ", " #39;", "tot", "ities ", "ential ", "french ", "sor", "general ", "ys ", "than", "thought ", "rom", "war ", "report ", "bir", "town ", "china ", "performan", "mexic", "- the ", "consum", "sports ", "was a ", "terri", "origin", "to go ", "month ", "ign ", "bank ", "world", "brow", "now", "tiv", "industr", "y-", "check ", "surpris", "vide", "phil", "there are ", "oil prices ", "palest", "however", "ham", "s on ", "season", "number ", "ker", "ency ", "ie ", "heal", "ai ", "desp", "port", "an, ", "ensive ", "sett", "about the ", "commun", "&lt;b&gt;", "billion ", "dollar ", "....", "police ", "al-", "atic ", "favorite ", "aver", "pan", "ouldn't ", "palestin", "i love ", "super", "dre", "je", "said on ", "hot ", "gol", "yel", "com ", "full ", "officials ", "beau", "e, and ", "...&lt;/", "&lt;b&gt;...&lt;/", "&lt;b&gt;...&lt;/b&gt;", "15 ", "lad", "itali", "abl", "restaurant", "nas", "&lt;b&gt;...&lt;/b&gt; ", "hy", "k, ", "na", "resul", "server ", "usually ", "15", "due ", "a bit ", "od", "accor", "compe", "centr", "\\u00e", "bb", "main ", "real ", "ney ", "google ", "let", "probably ", "ded ", "part ", "face ", "nuc", "finally ", "iraqi ", "ram", "adi", "seen ", "the food is ", "the film ", "men ", "a great ", "ghd", "contr", "web ", "eat", "ath ", "ry", "using ", "was very ", "spr", "earn", "val ", "ily ", "( ", "having ", "tues", "stem ", "held ", "system", "watch", "p.", "ses ", "mob", "had the ", "after the ", "excell", "customer ", "often ", "augh", "actually ", "nucle", "a.", "same ", "although ", "stay ", "it. ", "e, but ", "hi ", "pho", "visit ", "ers, ", "ed to be ", "que ", "fully ", "hin", "late ", "s: ", "progr", "disappoint", "talks ", "dam", "ense ", "i would ", "spac", "public ", "gave ", "ane ", "list", "lou", "it 's ", "days ", "final ", "despite ", "ky", "ders ", "enjoy", "baghd", "succ", "ole ", "bow", "cel", "fast", "viol", "insur", ". it ", "is an ", "new york (reuters) - ", "a good ", "plan ", "quality ", "rul", "ouple ", "champion", "fa", "er to ", "team", ", and the ", "cheese ", "mobile ", "ca", "eff", "tow", "sign", "wan", "ones ", "edy ", "japan", "appl", "ide", "concer", "you're ", "ket ", "crow", "up to ", "stop ", "giant ", "making ", "follow", "mer ", "chinese ", "biggest ", "coffe", "ically ", "extre", "elling ", "2-", "cover", "i've been ", "japan ", "w.", "fail", "=\"", "area ", "pay", "ation of ", "ops ", "ondon ", "cat", "istan ", "youn", "is not ", "israel", "y of ", "test", "199", "night", "entertain", "o-", "explo", "2004 ", "street ", "6-", "ming ", "no. ", "if", "did not ", "horri", "e! ", "london ", "sat", "ages ", "abil", "bid ", "curr", "join", "outside ", "afgh", "working ", "wednes", "nearly ", "six ", "stars ", "ibm ", "inst", "afp ", "strong ", "takes ", "country ", "games ", "cal", "name ", "that i ", "continu", "sil", "ley ", "bul", "'ve ", "pak", "vol", "lion", "prime minister ", "ci", "chic", "not", "attle ", "ener", "news ", "complet", "employe", "ben", "lu", "al, ", "service is ", "drinks ", "(afp) afp ", "camp", "da", "whe", "expl", "ress ", "!\\n\\n", "gold ", "coach ", "ker ", "). ", "trade ", "ure", "anti", "we had ", " new york (reuters) - ", "though", "aff", "here. ", "power", "cin", "organ", "on tuesday ", "associ", "launch", "that's ", "flavor", "icker", "electr", "nuclear ", "grap", "technology ", "ism ", "incre", "round ", "serve ", "works ", "!! ", "pic ", "ign", "reported ", "want to ", "wanted to ", "ahead ", "s, the ", "higher ", "military ", "fun ", "side", "the first time ", "four", "im ", "st. ", "isco ", "have to ", "ball", "care ", "in an ", "i went ", "row ", "e, the ", "including ", "afric", "office ", "telev", "non", "sam", "stopp", "fore", "after a ", "offer ", "3-", "bal", "ing for ", "deb", "dig", "sud", "job ", "las ", "tin", "wire", "buc", "extr", "gres", "stra", "fel", "lam", "1-", "ards ", "ide ", "interest", "companies ", "\" ", "jur", "pack", "es the ", "person ", "anything ", "leader ", "effor", "ask ", ") - ", "f-", "research", "es for ", "decent ", ":/", "inste", "eni", "ing.", "from a ", "sli", "wonder", "ky ", "mag", "mul", "ts to ", "aster", "husband ", "30", "gaz", "htt", "low ", "squ", "class", "system ", "power ", "ts and ", "secre", "amazing ", "glob", "://", "http", "2.", "call ", "acros", "local ", "tors ", "http://", "ety ", "mall ", "ticker", "was the ", "mark ", "www.", "club ", "sept", "ah ", "pm ", "es that ", "inside ", "drive ", "s' ", "after", "video ", "jud", "past", "selection ", "spir", "financ", "england ", "midd", "does", ", 201", "mad", ". they ", "apple ", "view", "member ", "maybe ", "beauti", "bers ", "wood ", "crit", "killed ", "accord", "that is ", "hard", "rup", "union ", "behin", "http://www.", "a-", "asp", "wife ", "contro", "consider", "able to ", "burger ", "manager ", "eve ", "white ", "piec", "share", "cut", "ls ", "on wednesday ", "rose ", "dep", "taking ", "disappoin", "sist", "ent, ", "tried ", "view ", "ordered the ", "bad", "ially ", "mess", "rac", "they", "trav", "gree", "heav", "ed by the ", "industry ", "ted by ", "large ", "fant", "water ", "breakfast ", "pati", ") and ", "califor", "fer", "pus", "in my ", "espec", "ump", "may be ", "plans to ", "saw ", "trying to ", "den ", "lab", "looks ", "latest ", "growth ", "olympic ", "ward ", "y's ", "there is ", "there was ", "expected ", "recommend ", "mal", "tru", "money ", "turn ", "fut", "already ", "version ", "octo", "4-", "done ", "&lt;a h", "ept ", "green ", "walked ", "kind of ", "yan", "comedy ", "dish", "update ", "location", "atmosphere ", "wireless ", "cul", "wall ", "slow", "sushi ", "&lt;a href", "used to ", "live ", "conven", "stock ", "title ", "&lt;a href=\"", "tv ", "on monday ", "rist", "los ", "s, but ", "drink ", "s.com", "coll", "it, ", "said.", "school ", "however, ", "a couple ", "group", "especially ", "ple", "have a ", "scri", "sox ", "typ", "global ", "ments ", "thin", "that was ", "regul", "according to ", "ution ", "s were ", "ing in ", "acle ", "place to ", "canadian ", "(afp) afp - ", "&lt;a href=\"http://www.", "acqu", "here for ", "steak ", "looked ", "gers ", "jun", "ator ", "leav", "form ", "russian ", "behind ", "smo", "inc.", "anim", "impro", "walk ", "funny ", "likely ", "extrem", "comes ", "spon", "tional ", "casin", "12 ", "rise ", "beer ", "but", "with my ", "thers ", "to make ", "abo", "rais", "style ", "mas", "weeks ", "network", "holl", "thing", "liam", ".  \\n\\n", "aug", "black ", "solut", "official ", "field ", "mel", "ots ", "wit", "aly", "ing of ", "deal", "like a ", "located ", "watch ", "everyone ", "just", "(c", "ok ", "beat ", ".  we ", "geor", "italian ", "television ", "ate", "comb", "server", "day. ", "ged ", "remain", "in its ", "es were ", "clos", "univers", "11 ", "won ", "leave ", "dist", "clean ", "fall ", "given ", "touch", "18", "sn", "vely ", "dead", "lost ", "care", "ren", "ession", "aig", "recent ", "like the ", "flor", "do not ", "ly, ", "r ", "read ", "aft ", "avail", "palestinian ", "mom", "town", "spic", "commis", "clean", "against the ", "saf", "ut ", "ank", "reserv", "it has ", "absolut", "previ", "board ", "item", "seven ", "return ", "perfect ", "soc", "art", "whole ", "young ", "?ticker", "ugg", "in and ", "itive ", "director ", "economic ", "?ticker=", "jer", "mart ", "legal ", "scienti", "hurric", "earnings ", " and ", "this was ", "offic", "can be ", "players ", "stand ", "he was ", "wel", "ed.", "meat ", "intel ", "ba ", "vel ", "increas", "pped ", "chees", "israeli ", "foreign ", "wer", "central ", "graph", "else", "first", "rather ", "target", "football ", "share ", "to-", "bon", "firm ", "histor", "angel", "strip ", "running ", "jam", "other", "inn", "station ", "on thursday ", "i don't ", "die ", "yet ", "ity of ", "attemp", "election", "staff", "tail ", "bit", "sug", "when we ", "priv", "reason", "months ", "led", "grand ", "imag", "&gt; ", "ins ", "trans", "services ", "ished ", "executive ", "front ", "fell ", "gor", "comfor", "release ", "4, ", "aw ", "ban ", "far", "gri", "wish ", "chall", "sign ", "enjoy ", "ebr", "ications ", "ato", "micha", "australian ", "investor.", "japanese ", "chicago ", "&lt;a href=\"http://www.investor.", "bly ", "bag", "cy", "as it ", "high-", "purch", "gain", "rate ", "wide ", "shopp", "demo", "my husband ", "average ", "&lt;a href=\"http://www.investor.reuter", "ine", "er-", "lines ", "become ", "awesome ", "&lt;a href=\"http://www.investor.reuters.com", "flo", "top", "prep", "part of ", "deser", "broad", "gun", "mov", "mini", "door ", "slow ", "ive ", "lig", "did", "conc", "corpor", "salad ", "i have been ", "seem ", "extremely ", "bac", "inf", "moder", "started ", "cred", "/fullquote.", "september ", "&lt;a href=\"http://www.investor.reuters.com/fullquote.", "tour", "quick ", "point ", "aspx", "cam", "federal ", "ions ", "ures ", "which is ", "attack ", "awesom", "&lt;a href=\"http://www.investor.reuters.com/fullquote.aspx", "\"&gt;", "os", ", so ", "rim", "shot ", "boston ", "world #39;s ", "shares ", "drug ", "11", "ov", "ani", "set", "fortun", "premi", "web", ", but the ", "northern ", "author", "drama ", "whether ", " the ", "reli", "iran ", "prot", "small", "indian ", "citi", "case ", "on friday ", "accoun", "force ", "sandwich", "east ", "luc", "inform", "chair", "sometimes ", "confer", "cou", "equ", "e.\\n\\n", "moun", "tell ", "wood", "zed ", "and it was ", "depart", "gest", "ends ", "waited ", "compet", "hold ", "cris", "when you ", "position ", "player ", "women ", "mm", "info", "reach", "as well ", "my favorite ", "keep", "cost", "crude ", "trip ", "year-", "investig", "mexican ", "cup", "rest ", "sequ", "bud", "death ", "audi", "avo", "intro", "cit", "spot ", "stocks", "&lt;a href=\"http://www.investor.reuters.com/fullquote.aspx?ticker=", "natur", "that they ", "this is a ", "i'd ", "stern ", "consist", "3.", "tic ", "table", "and was ", "two-", "know", "good. ", "pas", "sat ", "ers to ", "ult ", "toge", "bring ", "windows ", "12", "beef ", "emer", "even", "go to ", "possible ", "rat", "er. ", "an un", "for my ", "cost ", "when the ", "michael ", "ore ", "mee", "ed to the ", "co. ", "present", "childr", "'ll ", "q ", "uk ", "ed in the ", "boy", "=/", "weekend ", "data ", "straight ", "phon", "baghdad ", "card ", "figh", "pc ", "es on ", "ago", "box ", "friends ", "writ", "law ", "&lt;/a", "center ", "florid", "target=/", "cent", "christ", "dead ", "ext", "brought ", "peoples", "site ", "ered ", "alleg", "er than ", "some of the ", "off the ", "meal ", "there were ", "threat", "sun ", "ed up ", "body ", "third-", "organiz", "ze", "what", "profession", "deliver", "ne ", "en, ", "isn't ", "during the ", "target=/stocks", "feel", "intel", "someone ", "coffee ", "digital ", "target=/stocks/", "dev", "defe", "reason ", "doesn't ", "ed at ", "presidential ", "sandwich ", "instead ", "october ", "cast ", "nes", "e to ", "tion of ", "dog ", "king", "bloc", "ts, ", "zen ", "ina ", "out the ", "original ", "target=/stocks/quick", "oracle ", "toky", "dir", "plann", "connec", "heard ", "scen", "support ", "workers ", "5-", "fill", "jan", ", or ", "and they ", "ambi", "tiz", "but i ", "giving ", "computer", "deliciou", "terror", "target=/stocks/quickinfo", "25 ", "ject ", "mur", "ny", "adm", "fire ", "match ", "''", "en't ", "to see ", "peace ", "has a ", "charge ", "base", "saying ", "bill ", "e: ", "is very ", "could be ", "cool ", "the same ", "human ", "francisco ", "energy ", "democr", "him", "shrim", "dog", "carri", "eu ", "drink", "perfec", "source ", "poor ", "taken ", "wrong ", "championship ", "multi", "yanke", "50", "to take ", "plat", "interest ", "menu", "tasted ", "yelp ", "middle ", "foc", "erc", "arr", "atl", "bank", "sched", "buffet ", "s-", "es.  ", "antic ", "red sox ", "back to ", "itten ", "film", "mix", "soldi", "/fullquote", "campaig", "target=/stocks/quickinfo/fullquote", "cir", "egg", "pain", "initi", "analy", "ator", "on my ", "import", "there's ", "seems ", "number of ", "absolutely ", "cast", "ki", "in 200", "shop ", "braz", "taste ", "book ", "virg", "special", "ministr", "target=/stocks/quickinfo/fullquote\"&gt;", "7-", "ail ", "que", "ford ", "allow", "vision ", "due to ", "ces ", "ed its ", "amoun", "antly ", "into a ", "waitress ", "performance ", "pakistan ", "pa", "itself ", "places ", "all-", "twice ", "southern ", "p, ", "roy", "india ", "characters ", "phoeni", "felt ", "by", "ior ", "rice ", "along ", "suit ", "wins ", "europe ", "hours ", "excellent ", "celebr", "da ", "n. ", "araf", "and re", "allow ", "astic ", "salad", "service. ", "appetiz", "short ", "believe ", "wanted ", "fish ", "kar", "huge ", "darfur", "recently ", "fied ", "food was ", "`` ", "rain", "injur", "fru", "grad", "linu", "ability ", "ff ", ". it was ", "ators ", "in this ", "among ", ".   ", "const", "ers are ", "blue ", "draw", "reports ", "network ", "house", "won't ", "` ", "avor ", "offers ", "chip ", "friendly and ", "domin", "cop", "cold ", "th-", "thai ", "alli", "prise ", "western ", "morning ", "tech ", "job", "polic", "written ", "!!! ", "personal ", "es, and ", "shoo", "expres", "launch ", "susp", "pil", "rap", "army ", "quali", "out of the ", "said it ", "machin", "design", "three-", "restaurants ", "management ", "happen", "united stat", "november ", "lunch", "nia ", ", it ", "term ", "not be ", "better", "last night ", "easy ", "leading ", "electron", "yum", "the only ", "respon", "ital", ". i was ", "success", "gaza ", "holly", "peoplesoft ", "gone ", "ire", "vid", "norm", "came here ", "woman ", "4.", "caf", "ool", "level ", "drop ", "lower ", "political ", "oil", ", with ", "rob", "colle", "group of ", "40 ", "ko", "reb", "of their ", "cheap ", "year-old ", "eating ", "asian ", "edly ", "ump ", "duce ", "screen", "sweet ", "mass", "this week ", "train", "so we ", "a lot of ", "los angel", "vent", "ells ", "paid ", "in his ", "separ", "moving ", "meet ", "burgh", "began ", "coc", "couldn't ", "ank ", "reven", "amazing", "consumer ", "above ", "-based ", "ip", "is, ", "it to ", "theat", "through the ", "demand ", "docum", "department ", "ed that ", "my first ", "green", "strugg", "beautiful ", "bit ", "unve", "sions ", "lots of ", "tran", "n #39;t ", "million", "nations ", "ature ", "better than ", "tax ", "fas", "pool ", "for an ", "sets ", "appar", "ement", "partic", "guy ", "owner ", "complain", "pick ", "yon", "o and ", "retail", "act", "france ", "stric", "studi", "hurricane ", "hits ", "radi", "sent ", "y.  ", "of his ", "es. the ", "users ", "this location ", "report", "texas ", "effec", "to have ", "updat", "champion ", "regular ", "health ", "ana ", "ori", "else ", "seated ", "best", "ag ", "e. i ", "cheap", "arrived ", "ed as ", "road ", "plans ", "lif", "by a ", "hotel", "study ", "financial ", "ron", ", who ", "of an ", "unfortun", "vid ", "which was ", "strike ", "tokyo ", "others ", "ands ", "ally, ", "ture", "miss", "course ", "either ", "agreed to ", "equi", "infl", "one-", "conference ", ".n", "eur", "the most ", "to try ", "to find ", "ed.  ", "kept ", "immedi", "fried ", "highly ", "food and ", "world cup ", "media ", "vote ", "lit", "ury ", "manu", "got the ", "less than ", "killing ", "anti-", "(sports ", "cli", "in vegas", "exam", "quote, ", "chip", "color", "reviews ", "birth", "introduc", "intellig", "(sports network", "bab", "em ", ". \\n", "history ", "customers ", "should be ", "lish ", "pitch", "thous", ". my ", "ables ", "spot", "the fin", "s.\\n\\n", "a small ", "trial ", "german ", "kidn", "san francisco ", "process", "kerry ", "clim", "gn", "i could ", "was not ", "trou", "step ", "here, ", "earli", "does not ", "heart ", "bomb ", "problem ", "together ", "100 ", "acy ", "le, ", "gue ", "expensive ", "visit", "service, ", "anyone ", "control ", "bay ", "emo", "eight ", "m, ", "ware ", "ariz", "ing on ", "neigh", "spent ", "economy ", "cinem", "sad", "ing up ", "chance ", "attacks ", "kids ", "cus", "fair", "lon", "at all", "rival ", "fif", ".\\n\\nthe ", "hosp", "thrill", "suppor", "program", "fight ", "tem", "wast", "for its ", "need to ", "arely ", "business", "forces ", "non-", "13 ", "18 ", "6;", "bought ", "nt ", "a is ", "confir", "forec", "park ", "way to ", "good, ", "dining ", "champions ", "?  ", "hen", "pit", "pap", "inning ", "ed an ", "meat", "had to ", "ve-", "public", "delicious ", "ile, ", "ex ", "decision ", "through", "such as ", "invol", "children ", "canc", "er.", "in their ", "with an ", "most", "propos", "ental ", "ground ", "s. i ", "strong", ": the ", "s to be ", "countri", "treas", "amp; ", "later ", "medioc", "itional ", "17", "bat", "fans ", "gent", "vin", "zen", "d and ", "plus ", "six", "ounds ", "entire ", "the food", "i'll ", "self-", "girl", "choic", "tap", "ties ", "simil", "met ", "company", "establ", "excit", "cooked ", "troops ", "investors ", "variety ", "program ", "laugh", "ta ", "food is ", "agreement ", "total ", "lic", "ler ", "inju", "when it ", "contract ", "commission ", "don ", ". but ", "loved ", "this is the ", "eder", "airport ", "production ", "minute ", "character ", "received ", "sauce ", "hollywood ", "ham ", "in-", "seat", "shoc", "paris ", ".\\n\\ni ", "epis", "standard ", "believ", "bowl ", "satis", "lan", "research ", "itu", "af ", "autom", "blu", "winning ", "america ", "food, ", "lightly ", "screen ", "linux ", "eag", "list ", "uary ", ". it's ", "in iraq ", "suppl", "i'm not ", "william", "increase ", "judge ", "1, ", "gy", "hand ", "tour ", "art ", "sem", "had been ", "gives ", "decor ", "ould", "bomb", "popul", "avoid ", "gas ", "sav", "sell ", "haw", "vert", "#36;", "\\u00e9", "24 ", "io", "as, ", "set to ", "agency ", "predic", "if you're ", "mail ", "198", "factor", "memor", "members ", "around the ", "confid", "close to ", "dav", "ez", "ious ", "urg", "life", "termin", "jobs ", "treat", "return", "wonderful ", "california ", "suggest", "cell ", "mun", ", as ", "alo", "mean", "dish ", "fix", "if you are ", "australia ", "korea ", "battle ", "io ", "at the b", "plent", "ad, ", "cond", "all of ", "descri", "refer", "john", "israel ", "rebel", "ements ", "so much ", "steak", "take", "summer ", "loss ", "simply ", "stayed ", "disappointed ", "ken", "ve, ", "reco", "on and ", "choo", "uses ", "it and ", "club", "health", "las vegas ", "afterno", "scientists ", "meeting ", "bak", "dul", "dut", "fro", "flight ", "ination ", "arrest", "a r", "i think ", "mission ", "expect ", "between the ", "j ", "nation ", "sold ", "red", "states ", "at this ", "need ", "ation, ", "overpric", "went to ", "dark ", "advanc", "modern ", "unveil", "manufac", " #36;", "6, ", "bott", "hic", "on a s", "beat", "busy ", "capital ", "powerful ", "they're ", "kidnapp", "got", "ipp", "jour", "ering ", "to say ", "that he ", "mod", "parking ", "athens ", "hostage ", "provide ", "world's ", "extra ", "baseball ", "3, ", "ses", "ts", "choc", "amid ", "living ", "prin", "feat", "uck ", "if the ", "soon ", "access ", "leaders ", "popular ", "shrimp ", "ines ", "anch", "veget", "phot", "overall ", "named ", "double ", "completely ", "darfur ", "fic ", "wants ", "for the first time ", "turned ", "soup ", "points ", "previous ", "'d ", "cros", "des ", "mou", "nig", "shows ", "what i ", "talk ", "member", "promis", "girl ", "research) ", "onto ", "and it ", "aging ", "shop", "spi", "desk", "/ ", "14 ", "ato ", "fy ", "nf", "tel ", "it a ", "moved ", "cuts ", "released ", "honest", "part of the ", "george ", "chan", "seat ", "option", "a hu", "defense ", "david ", "august ", "campaign ", "civ", "ox", "race ", "islam", "appoint", "ight", "a bar", "-- the ", "russia ", "well-", "indon", "scott", "stores ", "dinner", "walking ", "sony ", "limited ", "authent", "afghan ", "depend", "100", "in, ", "answ", "ing its ", "for their ", "my wife ", "so many ", "goes ", "starting ", "frequ", "because the ", "idea ", "afghan", "fourth ", "gro", "nine ", "es, the ", "us, ", "! the ", "! i ", "figu", "okay", "target ", "astern ", "chocol", "indones", "n.", "pau", "requi", "advert", "forward ", "a bad ", "even though ", "mater", "cash ", "appear", "britain ", "60 ", "will", "wouldn't ", "ac ", "dest", "congres", "they had ", "fine ", "guess ", "earth", "write ", "terrible ", "insurance ", "ian", "lor", "reve", "becom", "year, ", "counc", "news", "seemed ", "known as ", "entertainment ", "arafat ", "45 ", "to give ", "true ", "time i ", "ordered a ", "movies ", "within ", "expected to ", "ga", "hoo", "ipo", "pitt", "rit", "stadi", "ing that ", "beyon", "spend ", "meal", "occas", "bled ", "decor", "baske", "simple ", "building ", "drug", "results ", "enjoyed ", "available ", "important ", "bell", "i can ", "acting ", "hair ", "supply ", "profile, ", "food. ", "sense ", "militants ", "korean ", "7.", "ca ", "han", "enn", "sed", "liked ", "track ", "vehic", "mind ", "thursday, ", "violence ", "sudan ", "los angeles ", "reali", "in which ", "island ", "entary ", "weap", "pork ", "away", "ated by ", "fuel ", "second-", "casino ", "private ", "shopping ", "third-quarter ", "college ", "hate ", "ken ", "administr", "black", "service and ", "suspec", "roll ", "however ", "stuff ", "eaten ", "horrible ", "interesting ", "a couple of ", "7, ", "k. ", "pc", "es in the ", "chain ", "it #39;s ", "edge ", "n target=/stocks/quickinfo/fullquote\"&gt;", "disput", "ship", "since the ", "human", "sitting ", "across the ", "pitts", "ip ", "ly. ", "had", "worri", ": quote, ", "box", "time, ", "burger", "rude ", "operating ", "olympic", "&lt;/a&gt; ", ": quote, profile, ", "5, ", "fying ", "m. ", "uj", "y. the ", "on sunday ", "usual ", "noc", ", but i ", "cream ", "waiter ", "(sports network) - ", "arizon", "a huge ", "bill", "fan ", "fol", "knew ", "mp", "ss ", "tol", "frau", "playing ", "products ", "nific", "emerg", "ians ", "ran ", "arsen", "eless ", "monday, ", "coast ", "scot", "cru", "s and the ", "upon ", "desser", "olog", "ounded ", "ceo ", "% ", "ds of ", "slightly ", "activ", "grill", "common ", "engine ", "!!!!", "cook", "rock ", "spicy ", "purchas", "chairman ", "bc ", "wis", "resid", "she", "it's a ", "medical ", "ended up ", "incredi", "pittsburgh", "kill ", "kitch", "acked ", "lear", "not only ", "makers ", "big", "corp.", "bread ", "wrong", "continue ", "character", "happy hour ", "chief executive ", "future ", " amp; ", "5.", "ug", "entr", "that will ", "mean ", "icip", "wine ", "chips ", "houston ", "this place. ", "claims ", "quarterly ", "toward ", "horrible", ": quote, profile, research) ", "16 ", "fer ", "gan ", "nood", "poll", "vill", "indic", "for $", "notic", "astro", "cler", "attenti", "197", "nice and ", "corporate ", "cau", "f. ", "hit", "ron ", "rejec", "aring ", "siz", "giants ", "gust", "guil", "it's not ", "last week ", "19 ", "except ", "claim ", "credit ", "neighbor", "kes ", "ners ", "oh ", "pon", "err", "ing.  ", "to buy ", "ity, ", "on saturday ", "of my ", "role ", "span", "supre", "proper", "kets ", "intend", "films ", "\\$1.", "formul", "begin ", "across ", "injured ", "less", "ma ", "mir", "rates ", "add ", "you are ", "you get ", "served ", "friday, ", "break ", "staff is ", "following ", "canadian pres", "beyond ", "-f", "gros", "iday ", "la ", "slo", "diff", "entre", "ented ", "about a ", "visited ", "fund ", "opening ", "tender ", "tuesday, ", "systems ", "travel ", "wall street ", "audience ", "0.", "range ", "your", "ery ", "ers.", "envir", "icks ", "of-", "as well", "es (", "exchange ", "spar", "morn", "disney ", "surve", "i've ever ", "brown ", "secret", "push", "information ", "2, ", "dge ", "spl", "tai", "throw", "a big ", "acking ", "seven", "draw ", "age of ", "here", "july ", "certain", "obvi", "speed ", "hard to ", "threaten", "lack ", "ro ", "also", "detail", "atten", "pping ", "because of ", "(reuters) - the ", "rich", "plot ", "product ", "looking for ", "falluj", "classic ", "protec", "environ", "cak", "eth", ", not ", "on sun", "is that ", "ami ", "unless ", "whose ", "semi", "aged ", "me and ", "pose ", "time to ", "became ", "\\$4", "miss ", "match", "weekend", "night, ", "humor ", "rel ", "ask", "ec ", "shut", "spo", "tried to ", "commit", "phoenix ", "6.", "bol", "dy", "lay", "pick", "tern", "load", "meas", "door", "got a ", "before the ", "president bush ", "lights ", "long-", "joint ", "tv", "telec", "vinc", "attr", "i really ", "al and ", "com) ", "sho", "deep ", "exac", "sure", "the fri", "survi", "signed ", "publish", "issues ", "prepared ", "mostly ", "paul ", "advertis", "dv", "pair ", "r. ", "tc", "ers. ", "island", "amb", "sex", "istan", "down the ", "resor", "radio ", "fle", "mist", "sd", "topp", "ens", "lef", "grade ", "ident", "friendly", "a long ", "i've had ", "clear ", "current ", "batt", "gur", "lt", "iness ", "ordin", "mort", "cric", "doing ", "most of the ", "carol", "enger ", "time. ", "let me ", "totally ", "explor", "bucks ", "push ", "plenty of ", "secretary ", "hood ", "rare ", "y: ", "s that ", ", is ", ", we ", "er of ", "division ", "this one ", "boy ", "discus", "fire", "carry ", "warn", "americans ", "love the ", "prices are ", "growing ", "doub", "choice ", "communications ", "selection of ", ".. ", "17 ", "abu", "blo", "ij", "escap", "goti", "get the ", "guys ", "ences ", "elections ", "eye ", "first-", "bankrup", "manufactur", "tle ", "s (", "s in the ", "arch", "on  ", "montre", "holiday ", "hope ", "further ", "ml", "sle", "wher", "but not ", "probe ", "up the ", "ute ", "flat ", "based on ", "valu", "delicious", "recommend", "issue ", "daugh", "m.", "mon ", "mand", "pir", "tan", "t.  ", "tough ", "vac", "ess, ", "sees ", "liber", "size ", ") is a ", "dry ", "event ", "event", "germany ", "ahead of ", "greek ", "conveni", "exactly ", "1/", "yn", "ensi", "as an ", "neg", "negoti", "place is ", "estim", "standing ", "14", "500 ", "8.", "hil", "ring ", "of this ", "it will ", "common", "devic", "quir", "spending ", "teen", "discover", "airline ", "english ", "subst", "include ", "complete ", "euro ", "liter", "similar ", "niger", "8-", "i, ", "ya", "suic", "ation and ", "positive ", "night. ", "tax", "medal ", "delivery ", "thanks ", "update", "center", "feder", "ris ", "ted to ", "replac", "a was ", "atel", "rober", "worth", "streng", "day's ", "mary ", "good and ", "annual ", "here.  ", "excep", "kills ", "stuff", "helped ", "contrac", "challen", "jack", "arti", "an hour ", "spok", "closed ", "    ", "too much ", "amount of ", "bby ", "dd", "dow ", "last", "ol ", "rad", "on.", "arm ", "and not ", "the-", "opposition ", "march ", "united nations ", "(ap) ap - the ", "accused ", "charged ", "charges ", "region ", "lady ", "excellent", "insurg", "wednesday, ", "florida ", "council ", "c. ", "mut", "ped", "rai", "rang", "re-", "retail ", "level", "exist", "qual", "ket", "when they ", "dollar", "quickly ", "employees ", "tournam", "!\\n", "camer", "y, the ", "or the ", "i and ", "i will ", "near", "preci", "ultim", "get a ", "area", "ized ", "signific", "terrible", "thousand", "tables ", "wow", "ority ", "reti", "chest", "for his ", "not to ", "co-", "line", "airways ", "accep", "picture ", "understand ", "does n't ", "mast", "yo", ", they ", ". this ", ". it is ", "on satur", "ur ", "distri", "mosc", "post ", "charlo", "toronto ", "missing ", "service", "a hal", "appeared ", "night.", "generally ", "offering ", "question", "establish", "basketball ", "21 ", "ew", "nit", "pin", "rav", "round", "zer", "orders ", "to help ", "of us ", "plant ", "beij", "that could ", "goal ", "ate the ", "cover ", "end of ", "a lar", "water", "scored ", "heavy ", "yankees ", "earlier ", "mas ", "van", "resol", "to do ", "on their ", "fired ", "if i ", "waiting ", "tele", "demand", "naj", "thinking ", "schedul", "equip", "supreme ", "cause ", "eastern ", "fli", "gas", "rally ", "vil", "wall", "remember ", "with its ", "the fact ", "guard ", "pressure ", "because i ", "played ", "myself ", "advent", "mac ", "full of ", "las vegas", "22 ", "bid", "bang", "one", "ings, ", "it.  ", "unit ", "for some ", "ridic", "apr", "options ", "projec", "\\n\\nthe ", "mart", "blast ", "donal", "host ", "boost ", "famili", "fan", "ms", "er's ", "it.", "asy ", "crab ", "anta ", "relation", "pulled ", "concerns ", "choose ", "ather ", "lis", "nin", "in vegas ", "as i ", "und", "for our ", "dies ", "my friend ", "the federal ", "times and ", "2005 ", "much", "colum", "longer ", "natural ", "fashi", "episo", "dell ", "pm", "the worst ", "adel", "suffer", "ge, ", "discoun", "veggi", "tony ", "wednesday.", "boyfriend ", "dirty ", "revenue ", "the final ", "scottsd", "mol", "rout", "ured ", "this", "alco", "ication ", "feels ", "costs ", "bland ", "ting the ", "tures ", "years, ", "music", "below ", "yesterday, ", "egy", "taco", "nasa ", "tuesday.", "african ", "scrip", "budget ", "langu", "takeover ", "cab", "dan", "nba ", "rich ", "san", "sent", "real", "eli", "an in", "with his ", "lot ", "construc", "ounce ", "ounding ", "blair ", "it was a ", "asser ", "come here ", "signs ", "worth the ", "taco ", "victory over ", "performances ", "soldiers ", "mediocre ", "variety of ", "nfl ", "eing ", "s\\", "thin ", "ership ", "remo", "stun", "stake ", "and we ", "haven", "se, ", "mark", "turn", "tasty ", "under the ", "items ", "intelligence ", "0-", "achi", "dum", "dres", "remin", "- a ", "perio", "place. ", "itions ", "what you ", "strip", "matter ", "washington", "canada ", "enough to ", "trading ", "employ", "development ", "virgin", "distribu", "wo", "wise ", "as much ", "active ", "ush ", "ada ", "seaf", "bean ", "that would ", "detro", "weigh", "astr", "up and ", "talking ", "killed in ", "amp;", "such a ", "born ", "problems ", "various ", "instead of ", "diffic", "suicide ", "-to-", "y, but ", "redi", "atory ", "identi", "portions ", "very good ", "crav", "networks ", "questions ", "themsel", "challenge ", "35 ", "bed ", "knoc", "tabl", ". he ", "ace", "that has ", "this restaurant ", "we went ", "class ", "mine ", "december ", "turkey ", "threat ", "ashed ", "cool", "based on the ", "feel like ", "romantic ", "californi", "desktop ", "guilty ", "formula ", "(update", "-up ", "panc", "insi", "reserve ", "ous and ", "to its ", "es a ", "for lunch ", "debut ", "trag", ") -- ", "pre-", "storm ", "press ", "north", "ishing ", "great. ", "value ", "told me ", "favorit", "association ", "thriller ", "avi", "backs ", "cro", "ograph", "psy", "xbox ", "erous ", "ingredi", "vers ", ".  they ", "weir", "andy ", "and, ", "ve. ", "here is ", "berry ", "treat ", "comple", "appeal ", "bility ", "tonight ", "mid-", "industri", "build ", "serious ", "right", "process ", "travel", "weren't ", "apparently ", "ridicul", "bath", "dly ", "dol", "dail", "thor", "it is a ", "with their ", "word ", "weak", "auc", "visiting ", "warm ", "south", "i had the ", "egg ", "hungr", "hundre", "crimin", "chocolate ", "mill", "selling ", "tom ", "is in ", "plate ", "worse ", "weight ", "people who ", "while the ", "thursday.", "she was ", "sport ", "european union ", "city of ", "packed ", "birthday ", "gotten ", "thousands of ", "**", "k.", "mes", "ps", "ved the ", "y, and ", "al. ", "cha", "convic", "s, a ", "astic", "brunch ", "clin", "place was ", "ellow ", "anni", "warning ", "e-mail ", "glad ", "unique ", "situ", "terror ", "impressed ", "settle", "january ", "chester ", "ax", "evid", "mall", "arian ", "chanc", "es: ", "hav", "spain ", "monday.", "craft ", "end of the ", "airlines ", "warned ", "people and ", "seek ", "merc", "looking for a ", "leagu", "speak", "investment ", "sauc", "benef", "mixed ", "excited to ", "adelph", "par ", "ton, ", "arm", "is to ", "tives ", "aimed ", "offensive ", "flavor ", "knows ", "i have ever ", "holding ", "losing ", "breakfast", "expectations ", "combin", "reasonable ", "zeal", "separate ", "afghanistan ", "wings ", "the us ", "reach ", "sted ", "as they ", "lets ", "ex-", "oppor", "prosec", "not a ", "craz", "if they ", "helpful ", "pleasant ", "customer service ", "truly ", "journ", "opportun", "barely ", "found", "jon", "o's ", "sa ", "s! ", "yuk", ", un", "stone ", "and un", "is so ", "es with ", "adop", "agu", "ago, ", "sh ", "west", "ational ", "lock ", "bush", "earth ", "musli", "func", "know what ", "people, ", "ryder ", "labor ", "james ", "ez ", "erce ", "ush", "seattle ", "project ", "counter", "needed ", "seriously ", "region", "tiny ", "madri", "christmas ", "professional ", "immediately ", "hospital ", "bankruptc", "-of-", "ga ", "won the ", "t in ", "inte", "chem", "chann", "usion ", "it took ", "age, ", "quest ", "vidu", "and-", "clich", "co.", "will not ", "when he ", "there", ".... ", "check", "10-", "promp", "com - ", "fighting ", "focus ", "brazil", "9.", "di ", "eigh", "ness", ", you ", "as he ", "at all ", "asia ", "ison ", "ains ", "finals ", "blast", "a car ", "winter ", "profits ", "sens", "street", "myster", "quarterback ", "necess", "watching ", "typical ", "comfortable ", "feeling ", "haven't ", "16", ":\\n", "ault ", "vend", "to my ", "acted ", "road", "it would ", "seating ", "that are ", "hear ", "award", "decad", "attack", "no one ", "outlook ", "\\$5", "valle", ", which is ", "entertaining ", "setting ", "ipod ", "cer ", "ean ", "les", "s with ", "aren't ", "atively ", "we've ", "the fre", "oct. ", "martin", "other than ", "a sal", "create ", "wal-", "never been ", "stock", "came out ", "plane ", "win over ", "company, ", "staying ", "my husband and i ", "democratic ", "himself ", "royal ", "dun", "fam", "nh", "sit ", "repe", "stro", "ado ", "motor", "contri", "in the united states ", "new zeal", "surprise ", "last week", "pretty good ", "seeks ", "agree ", "series of ", "virtu", "foot", "as well as ", "occasion", " london ", "o. ", "pass ", "swi", "save ", "enter ", "ed out ", "i just ", "plays ", "about", "in the first ", "pho ", "if it ", "said the ", "tion, ", "a sing", "microsof", "company #39;s ", "book", "rule ", "philipp", "behind the ", "fairly ", "london", "attention ", "fem", "hill", "lin ", "p&gt;", "pact ", "vin ", "yasser ", "ings and ", "to this ", "whel", "that 's ", "allows ", "suppos", "holds ", "directed by ", "checked ", "empty ", "away from ", "rights ", "justice ", "williams ", "cle ", "ek ", "py ", "telling ", "an-", "bed", "exten", "ember", "ender ", "up for ", "finance ", "steve ", "there. ", "winner ", "miami ", "tte ", "individu", "government", "billion", "picked ", "prison ", "singap", "philadelph", "golf ", "country #39;s ", "lux", "script ", "initial ", "bay", "cake ", "fal", "fish", "nom", "t's ", "thi", "y in ", "on its ", "plom", "all of the ", "ained ", "brand ", "us and ", "finding ", "scal", "the bar", "this place has ", "ships ", "196", "   ", "e.  the ", "lax", "faces ", "well, ", "arriv", "dramatic ", "piece ", "purchase ", "knowled", "dutch ", "april ", "1,", "kans", "n, ", "sanc", "en's ", "a (", ". in ", "assist", "lose ", "this year ", "we got ", "portr", "portion", "manchester ", "ted the ", "uck", "this place was ", "try to ", "missed ", "solid ", "light", "critic", "cock", "appointment ", "dan ", "hous", "i-", "smi", "wan ", "ys", "inside", "reduc", "the fl", "au ", "a cor", "tried the ", "u.n. ", "captain ", "suspen", "opened ", "rising ", "june ", "8, ", "ku", "pace ", "independ", "arc", "itor", "ota ", "pract", "posts ", "grab ", "s. \\n\\n", "phones ", "aliz", "a bre", "crew ", "louis ", "grilled ", "a large ", "cow", "cell", "selection", "s a ", "one, ", "atom", "tim ", "that you ", "determin", "dialo", "expor", "opin", "place for ", "red to ", "would have ", "sale ", "200 ", "one of the best ", "consider ", "collec", "renew", "soccer ", "designed to ", "responsi", "authentic ", "pittsburgh ", "dang", "jas", "respec", "to come ", "sex ", "buying ", "appreci", "greec", "parliam", "finish ", "coach", "awa", "flu", "year.", "troop", "land, ", "risk ", "shares of ", "arsenal ", "mortg", "psych", "#15", "+ ", "nu", "nast", "pun", "republic", "altern", "on his ", "i like ", "adap", "are the ", "storage ", "stewar", "ong k", "counter ", "self", "sushi", "staff was ", ". \\n\\nthe ", "seeking ", "a lot ", "ukrain", "type of ", "unfortunately ", "mail", "nail", "to pro", "i got ", "irish ", "th and ", "apol", "diplom", "franch", "poor", "bru", "marri", "there is a ", "hib", "ignor", "expensi", "mike ", "smoo", "ize ", "hold", "certain ", "satell", "sudan", "negative ", "anno", "represent", "aling ", "ed it ", "i didn't ", "buff", "die", "eds ", "moon ", "ity and ", ". i have ", "country", "ed by a ", "inc. (", "they have a ", "low-", "falls ", "yelp", "bbq ", "plan to ", "servers ", "challeng", "floor ", "competition ", "frustr", "material ", "certainly ", "lack of ", "#151", "9-", "cable ", "fav", "ling", "na ", "inde", "the last ", "to eat ", "ride ", "adul", "\\nthe ", "buy", "this week", "weak ", "ation.", "tests ", "code ", "friday.", "crash ", "five-", "commerc", "because of the ", "friends and ", "near the ", "fantastic ", "acquis", "leaving ", "career ", "kitchen ", "cleric ", "hp ", "mit", "mit ", "oak", "stic ", "the\\", "ed. the ", "ularly ", "met", "aud", "up on ", "tee ", "coast", "scand", "fix ", "card", "burn ", "indian", "athen", "years ago ", "added ", "search engine ", "wild ", "sharp ", "(cp) ", "social ", "united states, ", "rebel ", "yaho", "equipment ", "). the ", "9, ", "ais", "cisco ", "e) ", "gain ", "ia, ", "jump ", "soo", "ini ", "of all ", "as of ", "es, but ", "le-", "you'll ", "gran", "parts ", "compared ", "craf", "delay", "desig", "threw ", "michi", "visual ", "berg ", "engine", "mush", "make it ", "where the ", "either", "pizza", "novel ", "showed ", "girls ", "please ", "brazil ", "confirmed ", "davis ", "administration ", "cricket ", "??", "aa", "song", "xp ", "ers", "ena ", "bus ", "tered ", "we have ", "perform", "me. ", "parents ", "marg", "minnes", "flic", "said monday ", "a bur", "lock", "really good ", "may have ", "expecting ", "waitres", "minutes to ", "downtown ", "seeing ", "includes ", "hostess ", "spring ", "rather than ", "defeat ", "cafe ", "moscow ", "detroit ", ".n target=/stocks/quickinfo/fullquote\"&gt;", "aus", "band", "jones ", "era ", "one. ", "for two ", "come", "suff", "concl", "ation of the ", "tured ", "expand", "\\$1", "okay ", "typic", "short", "science ", "major league ", "potential ", "sept. ", "university ", "university of ", "virgin ", "aimed at ", "integr", "commercial ", "), and ", "1st ", "25", "bc", "gard", "hid", "zone ", "a year ", "ed my ", "hair", "liqu", "ers were ", "worked ", "prac", "ent. ", "key", "boeing ", "burg", "ordering ", "rush", "nov. ", "deal with ", "singh ", "executives ", "might be ", "mobile phone ", "failed to ", "stopped ", "leaves ", "schedu", "forecast ", "frozen ", "stadium ", "spokes", "annivers", "-year ", "bes", "hoc", "hong k", "on. ", "ar-", "ed his ", "action", "today, ", "bry", "driving ", "horr", "expectation", "ready to ", "pull ", "panel ", "attempt to ", "spanish ", " washington ", ").  ", "bour", "gm ", "master", "rating ", "the united states ", "and his ", "es of the ", "es. i ", "fest", "blood", "up, ", "mile ", "correc", "ists ", "back and ", "ed a new ", "u.s.", "aturday ", "season, ", "easily ", "markets ", "enterprise ", "chicken", "simpl", "claim", "must be ", "rolls ", "domest", "surprisingly ", "fantastic", "electronics ", "suspected ", "-fi ", "#151; ", "kil", "uel", "vul", "chelse", "ent and ", "sume ", "conflic", "ers of ", "via ", "from its ", "meh", "scale ", "what the ", "years of ", "puts ", "somewhere ", "good.  ", "memory ", "microsoft corp. ", "everything was ", "traditional ", "garit", "concern ", "debate ", "effort to ", "authorities ", "crude oil ", "multiple ", "karz", "daughter ", "ging ", "ier ", "rand", "sar", "selec", "ts.", "arab", "for this ", "died ", "tre ", "embar", "out and ", "in the middle ", "aim", "means ", "brand", "marin", "illing ", "time and ", "out. ", "ence of ", "spectac", "wrap", "made a ", "i had a ", "invent", "success ", "considering ", "dvd ", "familiar ", "wal-mart ", "a: ", "ied ", "len", "sell", "s...", "temp", "thom", "y , ", "i thought ", "older ", "wid", "verse ", "distric", "suit", "ed. i ", "not the ", "feature ", "margarit", "turns ", "wedding ", "come to ", "a fan ", "defic", "south afric", "build", "potato ", "effici", "pakistan", "normally ", "emotional ", "daily ", "gul", "kia ", "soft ", "a to ", "or to ", "versi", "shel", "educ", "grav", "parti", "heat ", "said, ", "flow", "what a ", "ance of ", "how to ", "inc. &lt;a href=\"http://www.investor.reuters.com/fullquote.aspx?ticker=", "beginning ", "originally ", "golden ", "georgi", "ireland ", "toll ", "fraud ", "beijing ", "hundreds of ", "muslim ", "yahoo ", "!!  ", "ox ", "skin", "van ", "w. ", "ony ", "in town", "with some ", "with no ", "consol", "but it ", "of the year ", "prec", "money", "fig", "sym", "close", "settle ", "disappointing ", "a single ", "0, ", "d.  ", "nor ", "ystem", "artic", "and then ", "tiger ", "sea ", "lie ", "this review ", "progres", "princ", "pop ", "our server ", "tea ", "ted a ", "umb", "here and ", "the bur", "there, ", "burgers ", "school", "hole ", "second time ", "open-", "tenn", "virus ", "lawsuit ", "potato", "explosion ", "affec", "acquire ", "venture ", "johnson ", "afternoon ", "philadelphia ", "fon", "hack", "ring", "ri ", ", an ", "and other ", "ing , ", "ility ", "riv", "lion, ", "apolo", "akes ", "conduc", "we ordered ", "ation. ", "compelling ", "section ", ", but it ", "warm", "new york - ", "prison", "howard ", "teams ", "likely to ", "moments ", "previously ", "sequel ", "islamic ", "supreme court ", "seafood ", "practic", "eful ", "fis", "fill ", "ia", "me, ", "swe", "would", "on-", "orange ", "rely ", "al.", "and its ", "es from ", "actors ", "spam ", "weather ", "me to ", "up a ", "us airways ", "dr. ", "drag", "awful", "there was a ", "a bus", "hip ", "azz", "highest ", "-- and ", "\\$2", "etc", "cream", "calls ", "victim", "german", "hands ", "partner", "window", "struck ", "ranked ", "alleged ", "analysts ", "successful ", "robert ", "themselves ", " london (reuters) - ", "1) ", "ease ", "ii ", "jump", "kash", "mour", "mood ", "smart ", "ved a ", "xim", "yard", "ing. the ", "stage ", "ing with ", "ate, ", "isl", "demon", "death", "motor ", "day of ", "oppos", "have the ", "ander ", "you will ", "all, ", "ground", "bring", "e. \\n\\n", "dod", "cardin", "airlin", "service.  ", "rick ", "busines", "back.", "quiet ", "rocket ", "debt ", "researchers ", "ambiance ", "normal ", "rebels ", "montreal ", "literally ", "virginia ", "yukos ", "madrid ", "practice ", "fing", "jack ", "pper", "argent", "as good ", "is just ", "today", "place, ", "upd", "he is ", "delta ", "cards ", "design ", "istic ", "micro", "cannot ", "created ", "banks ", "lawy", "sharon ", "ific ", "bid for ", "install", "video game ", "bonds ", "gorge", "cinema ", "ryder cup ", "new zealand ", "3r", "99 ", "dance ", "daq", "fair ", "iel", "kne", "ohi", "t) ", "x, ", "on\\", "alone ", "stick ", "cher ", "i found ", "acqui", "ams ", "we are ", "ally", "would not ", "who are ", "species ", "raise ", "son, ", "a federal ", "troph", "direction ", "officially ", "dollars ", "ivan ", "needs ", "eyes ", "question ", "season.", "nasdaq", "bid to ", "volu", "stopped in ", "patio ", "constitu", "particularly ", "recogn", "astros ", "domestic ", "ping ", "ed their ", "in 199", "iss ", "advis", "load ", "spur", "grew ", "finds ", "interior ", "a sol", "hip", "out, ", "viet", "-- a ", "rude", "million in ", "militant ", "problem", "(cb", "clean and ", "protect ", "electronic ", "forecast", "confidence ", "tournament ", " #151; ", "13", "lic ", "min ", "nar", "tho", "thail", "ino ", "as part of ", "chur", "was so ", "edg", "ers in ", "my boyfriend ", "fears ", "up to the ", "display ", "award ", "secu", "guid", "ancy ", "pretty much ", "hopes ", "built ", "single ", "pacific ", "launches ", "square ", "greeted ", "version of ", "according to a ", "officer ", "documentary ", "advanced ", "civil ", "earthqu", "bankruptcy ", "2n", ":30 ", "bell ", "mw", "narr", "wol", "yes, ", "the movie ", "or, ", "rep", "resc", "ing, and ", "exerc", "spy", "not sure ", "impl", "blow ", "ities and ", "when a ", "starts ", "dont ", "back in ", "because they ", "senate ", "rooms ", "technologi", "visit to ", "baghdad, ", "no. 1 ", "hawai", "martin ", "settlement ", "bun", "danc", "rain ", "sen ", "on's ", "a  ", "ousl", ". and ", "stag", "to keep ", "ching ", "chris ", "nei", "comes to ", "after being ", "events ", "expan", "mention", "newsp", "i had to ", "half-", "ition of ", "heart", "specific", "sort of ", "damage ", "paying ", "currently ", "sharehol", "message ", "massive ", "anium ", "citizen", "session ", "singapore ", "figure ", "nav", "nintend", "vow", ", in ", "aled ", "es at ", "chand", "es' ", "river ", "nokia ", "expo", "train ", "traff", "today.", "ed to a ", "up with ", "mone", "clar", "marth", "surger", "attor", "no longer ", "corn ", "who is ", "ashes ", "good, but ", "venez", "made it ", "one of the most ", "rock", "patri", "advance ", "per cent ", "possibly ", "thank ", "consumers ", "nail ", "moment ", "device ", "block ", "perfectly ", "italy ", "particular ", "weapons ", "yourself ", "semi-", "1/2 ", "fat", "file ", "gym", "i.", "ka", "lake ", "pel", "pad ", "ray ", "send ", "stood ", "ed from ", "chen ", "roger ", "used to be ", "theast ", "that we ", "from", "consecu", "story", "just a ", "wards ", "base ", "withdraw", "tics ", "claimed ", "hurt ", "tacos ", "window ", "palestinians ", "ruling ", "round of the ", "plead", "rise in ", "broadband ", "camp ", "written by ", "theater ", "honestly ", "prosecut", "satellite ", "newspap", "40", "ben ", "gall", "leng", "sop", "tum", "ty, ", "itch ", "whit", "note", ".  i was ", "pois", "grand", "veter", "board", ". i had ", "use of ", "guar", "writing ", "operation ", "helpful", "deliver ", "generation ", "to sell ", "calif. ", "critical ", "dishes ", "collap", "safety ", "grand pri", "keeps ", "rest of the ", "atlanta ", "policy ", "screenplay ", "dialogue ", "neither ", "venezuel", "gon", "ts. ", "tation ", "stal", "ches ", "for dinner ", "rival", "ts are ", "spam", "clas", "blood ", "flaw", "steel", "2004, ", "bread", "entially ", "mix ", "subsi", "broke ", "observ", "look at ", "drove ", "dropped ", "brows", "gold medal ", "improve ", "imagin", "atlantic ", "treasury ", "vince ", "kansas ", "mortgage ", "23 ", "cal ", "insist", "around", "stair", "ity.", "i know ", "accom", "asking ", "for lunch", "old", "leban", "deplo", "suits ", "ar and ", "prev", "go-", "bran", "! \\n\\n", "awful ", "decline ", "years and ", "cuis", "warner ", "leads ", "juic", "microsoft #39;s ", ". \\n\\ni ", "more than a ", "we were seated ", "valley ", "this place", "touch ", "john kerry ", "ah, ", "towards ", "otherwise ", "&lt;/a&gt;", "paper ", "telecom", "ultimately ", "list of ", ".o", "80 ", "a\\", "hat", "has", "nat", "ya ", "t is ", "ino", "refu", "alist ", ". a ", "ung ", "it the ", "liv", "shir", "degre", "depres", "...\\n\\n", "andre", "bron", "firef", "upgrad", "who was ", "try the ", "during a ", "rolled ", "apped ", "ivory ", "technolog", "post.", "score ", "honest ", "trip to ", "evening ", "vehicle ", "arizona ", "shuttle ", "a half ", "dolph", ").", "* ", "90 ", "infr", "arms ", "ity", "rook", "for about ", ".  my ", "emb", "auto ", "firms ", "salv", "are, ", "candi", "poll ", "came to ", "driver ", "reading ", "third quarter ", "maker of ", "students ", "secret ", "touchdown ", "mountain ", "extended ", "queen ", "pilots ", "training ", "healthy ", "beaten ", "congress ", "dispute ", "environment", "carolina ", "adventure ", "opportunity ", "anniversary ", "rivals ", "consecutive ", "east", "ies, ", "jen", "oy", "s; ", "on our ", "an and ", "rito ", "that a ", "abb", "option ", "but they ", "perha", "ander", "the fish ", "oughly ", "phar", ", the world #39;s ", "flu ", "5 star", "desk ", "vision", "groups ", "booked ", "decide ", "decided ", "losses ", "changes ", "impressive ", "mexico ", "there is no ", "accounting ", "nation #39;s ", "emergency ", "survey ", "commonly ", "sanctions ", "greece ", "gal", "gil", "jet ", "lap", "rum", "zer ", "republic ", "a very ", "to watch ", "ati ", "as and ", "is still ", "when", "lives ", "atives ", "log", "ations of ", "serves ", "brus", "teen ", "bling ", "anticip", "free", "countr", "them to ", "waiting for ", "yesterday.", "director", "if you want ", "greatest ", "breaking ", "operations ", "additional ", "penn", "approach ", "sourc", "community ", "crowd ", "iff ", "relief ", "investigation ", "tasted like ", "countries ", "features ", "a barrel ", "taiwan ", "typically ", "75 ", ":\\n\\n", "ebay ", "hang", "mom ", "osc", "pack ", "sain", "vice ", "wyn", "ity. ", "at its ", "it would be ", "lett", "sized ", "ape ", "truck ", "words ", "prepar", "otic ", "we decided to ", "greas", "marsh", "bland", "draft ", "his first ", "cruc", "declin", "icky ", "prices and ", "delight", "shared ", "called the ", "senior ", "kind ", "medium ", "state of ", "needed to ", "advant", "one of my ", "\\u00f", "convention ", "deadly ", "release of ", "planned ", "waste ", "company's ", "dull ", "worries ", "neighborhood ", "ately, ", "episode ", "washingtonpost.", "nhl ", "hong kong ", "traffic ", "dom ", "mr. ", "soci", "wic", "win the ", "yard ", "th, ", "armed ", "ing-", "stic", "amd ", "lip", "bean", "shot", ") is ", "opec ", "andw", "said", "tionally ", "people were ", "went here ", "came in ", "nik", "promise ", "this place.  ", "worldwide ", "bull", "sampl", "piece of ", "welcom", "welcome ", "retailer ", "ological ", "attentive ", "minnesota ", "embass", "2) ", "28 ", "jay ", "jef", "n'", "pain ", "pical ", "raf", "sad ", "tack", "yes ", "the other ", "ar, ", "in a c", "ombi", "assem", "tired ", "sister ", "comic ", ".  it was ", "optim", "of the united states ", "ations, ", "us to ", "elled ", "attend", "what they ", "priced ", "look", "content ", "somewhat ", "chief", "targets ", "(reuters) reuters - the ", "rooms are ", "sharing ", "putin ", "rules ", "catch ", "boston red sox ", "crisis ", ".n&lt;/a&gt; ", "photo", "accused of ", "stewart ", "hockey ", "karzai ", "bis", "ee ", "jac", "kaz", "qa", "rust ", "ink", "rement ", "and is ", "and have ", "in iraq", "cher", "chose ", "illegal ", "sey ", "le of ", "this time ", "model", "you know ", "strate", "brings ", "portion ", "utah ", "internet", "ware", "wave ", "inten", "pricey ", "first time ", "e.\\n", "over-", "overwhel", "prize ", "experts ", "striker ", "richard ", "too many ", "anyway", "next to ", "great, ", "glas", "australia #39;s ", "loud ", "cute ", "futures ", "won't be ", "insurgents ", "1. ", "bann", "dall", "fat ", "foun", "hill ", "jor", "loun", "nap", "vs. ", "t the ", "on thursday, ", "i can't ", "acad", "iran", "beats ", "buys ", "ded", "loved the ", "extend", "forget ", "word", "from my ", "strange ", "hew", "s.mw", "said yesterday ", "tries to ", "only one ", "carr", "brew", "experim", "driven ", "picture", "that, ", "addition ", "saus", "vod", "hostages ", "garlic ", "putting ", "lobster ", "crime ", "2004 - ", "witness", "website ", "woods ", "missile ", "on a saturday ", "willing to ", "zero ", "jason ", "(cbs.mw", "perhaps ", "bou", "fann", "las", "pga ", "raid ", "tful ", "income ", "the company ", "remain ", "is always ", "elev", "usi", "abor", "out to ", "ice cream ", "pepper", "serving ", "joint", "antit", "s) canadian pres", "core ", "because it ", "raw ", "within the ", "planet ", "streak ", "targe", "begins ", "jets ", "men #39;s ", "listen", "murder ", "suspended ", "millions of ", "temper", "canadian press) canadian pres", "yogur", "resolution ", "scottsdale ", "demonstr", "academ", "canadian press) canadian press - ", "26 ", "70 ", "a, and ", "eye", "gun ", "hood", "raft ", "t. the ", "tops ", "xi", "the way ", "enron ", "request", "aries ", "als, ", "itun", "on the f", "rib", "bears ", "lot of ", "excl", "sust", "mos", "trust ", "ford", "out for ", "aired ", "pet", "petro", "had no ", "drun", "disgust", "sec ", "phys", "link", "ty and ", "over a ", "upset ", "intri", "holy ", "excited ", "defensive ", "wonder ", "runs ", "foot ", "nice, ", "voting ", "st. louis ", "malay", "windows xp ", "influ", "champions league ", "licen", "criminal ", "(cp) - ", "\\\\", "bite ", "fit ", "grow ", "han ", "km", "sy ", "zar", "item ", "is n't ", "i ordered ", "tigh", "whol", "shr", "mother ", "moves ", "trying ", "frank", "we had a ", "occur", "vez ", "party", "finished ", "bles ", "flat", ". i am ", "decis", "what it ", "present ", "so-", "again.", "china #39;s ", "mention ", "new york, ", "room was ", "numbers ", "medic", "experience. ", "fresh and ", "bird ", "spacec", "spirit ", "hardly ", "delicious. ", "proposal ", "model ", "spired ", "achiev", "female ", "yasser arafat ", "nintendo ", "malaysi", "300 ", "a, the ", "cann", "pool", "twi", "refl", "as you ", "asks ", "tie ", "unit", "for \\$", "semic", "but, ", "that have ", "that it was ", "deep", "motion ", "are not ", "pot ", "ations and ", "were very ", "teach", "illa ", "the bar ", "delay ", "area, ", "basic ", "went there ", "united king", "clearly ", "i have to ", "calling ", "accept ", "athlet", "voice ", "one of those ", "approach", "changed ", "bank of ", "now, ", "i've been to ", "effort ", "magaz", "improv", "remains ", "express ", "proposed ", "drugs ", "significant ", "hidden ", "(and ", "glo", "mir ", "ra ", "s.  the ", "the next ", "a movie ", "stan", "to check ", "itor ", "on this ", "in your ", "seats ", "aked ", "mother", "convinc", "not so ", "finish", "tion. ", "upgrade ", "able and ", "s of a ", "aircraft ", "chef ", "make sure ", "shap", "second", "profit", "anywhere ", "opens ", "years ago", "should have ", "suck", "spee", "dream ", "bowl", "casino", "imagine ", "whatever ", "terrorism ", "studio ", "my wife and i ", "olympics ", "ingredients ", "evidence ", "2nd ", "(m", "400 ", "ets ", "hat ", "ss", "tt ", ",  ", "oul ", "ing an ", "k and ", "ado", "lift ", "term", "note ", "prospec", "ation for ", "ve.", "fear", "impact ", "heat", "boss ", "minim", "flying ", "interim ", "surr", "he has ", "incor", "anci", "any other ", "hop ", "friendly. ", "walk", "complex ", "appear ", "legisl", "amily ", "maintain", "receive ", "asked for ", "drew ", "enjoyed the ", "raises ", "hurrican", "devast", "yummy ", "fifth ", "indonesia ", "najaf ", "egyp", "language ", "difficul", "crazy ", "channel ", "michigan ", "subsidi", "(or ", "gen ", "jak", "n-", "o'", "sant", "tells ", "wing", ", no ", "on top ", "in line ", "is also ", "or a ", "actor ", "owing ", "like", "lived ", "deals ", "loy", "premis", "... i ", "twic", "marks ", "ted in ", "bodi", "than the ", "steel ", "start", "most of ", "way too ", "could not ", "i've never ", "!!!", "always been ", "ok. ", "simul", "approval ", "victory over the ", "sorry ", "is an american ", "top-", "extend ", "defeated ", "injury ", "alliance ", "machine ", "massage ", "sadr ", "supplies ", "sense of ", "caught ", "obviously ", "abu ", "sentenc", " washington (reuters) - ", "(n", "24", "fly ", "ka ", "swed", "snow ", "wake ", "yen ", "onduc", "is pretty ", "us. ", "for the first ", "whil", "liver", "beat the ", "beating ", "frank ", "produce ", "by far ", "s, which ", "pepp", "strat", "marath", "awi ", "s and a ", "ture of ", "outdoor ", "announce ", "airpor", "last year ", "ett", "american", "clevel", "larger ", "tastes ", "tale ", "security council ", "promo", "----", "helping ", "pull", "surprised ", "let's ", "space.", "caus", " new york (reuters) - u.s. ", "associated ", "return to ", "historic ", "terrorist ", "describ", "grocer", "property ", "seventh ", "manchester united ", "spokesman ", "semiconduc", "?\\n\\n", "cass", "couple ", "e\\", "iy", "lun", "py", "s? ", "anth", "the new ", "sters ", "ed  ", "icate ", "on monday, ", "illi", "at amp;", "for me ", "for the f", "ent of ", "spin", "aking ", "ed, and ", "conserv", "they don't ", "e, a ", "man, ", "clash ", "hewit", "fries ", "giant", "awn ", "comput", "acknow", "playoff ", "slic", "walt ", "side of ", "athle", "market", "ology ", "nights ", "pictures ", "novell ", "including the ", "number", "succe", "seems to ", "going to be ", "wanting ", "cutting ", "commission", "comfortable", "treatment ", "kenne", "incredibly ", "industrial ", "smith ", "horror ", "refuge", "(canadian press) canadian press - ", "27 ", "80", "jail ", "lak", "mass ", "oh", "then", "relax", ", this ", ", then ", "a week ", "iti ", "itude ", "in las vegas", "as far ", "is now ", "wide", "bear", "bever", "that its ", "diam", "dip ", "eded ", "ed, the ", "for-", "perc", "day, the ", "mary", "scram", "their own ", "flag", "dozen ", "said tuesday ", "pist", "decent", "a col", "starbucks ", "areas ", "owners ", "friendly, ", "good. the ", "creative ", "treated ", "genu", "syd", "down on ", "closing ", "made the ", "factor ", "okla", "cashi", "friday night ", "stret", "invit", "specific ", "speak ", "gave me ", "employee ", "groupon ", "won #39;t ", "distance ", "increased ", "keeping ", "pick up ", "change", "fallujah ", "ordinary ", "stake in ", "thailand ", "exercise ", "acknowled", ",\\", "aol ", "ee", "fai", "hell", "kers ", "rou", "s.  i ", "enough", "ari ", "a day ", "ic, ", "er was ", "amed ", "plain ", "was pretty ", "le. ", "ady ", "veriz", "beer", "agenc", "with a s", "prefer ", "kevin ", "a boo", "carib", "hero ", "specul", "next year ", "kinda ", "nie ", "merger ", "numerous ", "child ", "sharply ", "space station ", "statement ", "offered ", "surprising ", "averag", "four-", "controversi", "fantasy ", "regulators ", "becomes ", "the fact that ", "formula one ", "martha ", "qaed", "gs ", "gary ", "smil", "intim", "eri", "and more ", "chap", "aside ", "iro ", "for me", "beef", "ativ", ".  it's ", "this past ", "its own ", "peter ", "peace", "has the ", "up in ", "brac", "disast", "about this place ", "here are ", "there 's ", "a bunch ", "assass", "years.", "only thing ", "2004", "color ", "bartend", "how much ", "resour", "oppon", "give it ", "glass ", "curry ", "every time ", "relatively ", "price of ", "fication ", "promot", "rises ", "west bank ", "mcdonal", "i've been here ", "television series ", "smaller ", "what's ", "interest rates ", "response ", "throughout ", "figured ", "indonesian ", "resort ", "doubt ", "masters ", "discount ", "football", "alternative ", "chelsea ", "cardinals ", "trophy ", "antitrust ", "60", ":)", "dor", "lacking ", "song ", "sending ", "instr", "inspir", "onion ", "enth", "a nice ", "alan ", "ing. i ", "amp ", "urban ", "wi-fi ", "apart", "edged ", "ourth ", "in the second ", "image ", "gift ", "flood", "said thursday ", "intern", "great and ", "assault ", "corner ", "file-", "helps ", "owned ", "ette ", "made me ", "a hand", "microsystem", "food.  ", "say that ", "subject ", "rub", "didn't have ", "palm", "atmospher", "tomor", "party of ", "performanc", "cinating ", "package ", "deadline ", "backed ", "premier", "drop in ", "baby ", "figures ", "mistak", "pancak", "clich\u00e9", "ohio ", "instrum", "ax ", "jit", "ko ", "ki ", "mess ", "ske", "smar", "thing. ", "insul", "recover", "als and ", "ing out ", "itution ", "plun", "was just ", "never", "adds ", "lies ", "shell ", "shoul", "shots ", "with this ", "ed-", "not too ", "pet ", "goals ", "crash", "join ", "jose ", "about this ", "upcoming ", "guy", "surge ", "price", "annan ", "charm ", "encoun", "\\$50 ", "2006 ", "ward", "syl", "down to ", "tool ", "since i ", "capac", "direct ", "standard", "handed ", "says.", "penal", "makes it ", "posted a ", "impressed", "saudi ", "result ", "competit", "\\u00e9 ", "electric ", "magic ", "jerus", "desert ", "scene ", "admit", "highly recommend ", "trouble ", "six-", "urges ", "vegetarian ", "civil", "ca n't ", "hang ", "noticed ", "protection ", "relationship ", "craving ", "necessary ", "famous ", "parliament ", "oakland ", "pakistani ", "expansion ", "attorney ", "controversial ", "a) ", "fare ", "flights ", "lol", "mes ", "nl ", "pound ", "s , ", "in. ", "innov", "ories ", "refresh", "ous, ", "on an ", "esh ", "ised ", "aming ", "rib ", "being a ", "shut ", "lovely ", "sue ", "but it was ", "of the same ", "in the past ", ".....", "they do ", "its first ", "e, i ", "to\\", "so far ", "parad", "impossible ", "cos ", ", and i ", "like to ", "what we ", "even the ", "summer", "refus", "took a ", "&lt;/p&gt;", "tons of ", "dropp", "mainly ", "hit the ", "lead the ", "actual ", "i love the ", "enjoyable ", "application ", "atmosphere is ", "melo", "distinc", "high-speed ", "gunmen ", "cupcak", "sun microsystem", "phoenix", "along with ", "qualifi", "throughout the ", "strength ", "charlotte ", "period ", "gulf ", "kashmir ", "pharmac", "nikke", "jerusal", "95 ", "bel ", "could", "d's ", "f.", "fit", "kin ", "sour ", "inated ", "enh", "to their ", "er is ", "as we ", "as many ", "at an ", "plus", "it wasn't ", "le.", "they will ", "ain, ", "august", "park", "straw", "brilli", "um, ", "craw", "secure ", "on the menu ", "said he ", "militi", "turning ", "go back ", "charming ", "could have ", "migr", "smell ", "pointed ", "books ", "record", "able. ", "arrive ", "provides ", "pleasure ", "san die", "bridge ", "reported a ", "concep", "mount ", "connection ", "ability to ", "pitch ", "ltd. ", "tony blair ", "weird ", "athens, ", "3rd ", "grand prix ", "oklahom", "nikkei ", "led by ", "remark", ". after ", "ing from ", "on friday, ", "on tuesday, ", "in 201", "omel", "as soon ", "tian ", "beach ", "emis", "ents, ", "metro", "aves ", "teh", "mani", "evol", "recall", "joe ", "maker, ", ". i would ", "two weeks ", "a seni", "anne ", "charles ", "so, ", "must", "basically ", "(ap) -- ", "clean, ", "accus", "brother ", "find a ", "chicken and ", "major", "chili ", "front of ", "known as the ", "tuesday", "notice ", "inside the ", "culture ", "universal ", "touchdown", "cheese", "infec", "mountain", "involv", "sixth ", "unveils ", "brazilian ", "schedule ", "open-source ", "narrative ", "fannie ", "$ ", "(the ", "cing", "mad ", "ner, ", "rarely ", "tell", "va ", "s of the ", "inspec", "inspired ", "onlin", "remember", "alex ", "stuck ", "ome", "tigers ", "hau", "butt", "shu", "loves ", "span ", "sum ", "traf", "forever ", "ers #39; ", "place in ", "crust ", "phen", "just the ", "said that ", "guest", "what is ", "years. ", "times, ", "desper", "nation's ", "mushar", "certi", "amazing. ", "download", "switch", "voters ", "sites ", "each other ", "due to the ", "we had to ", "city, ", "kobe ", ".n: quote, profile, research) ", "arrested ", "residents ", "devices ", "arctic ", "buffal", "firefox ", "whenever ", "semiconductor ", "29 ", "90", ":30", "a. the ", "sound ", "restric", "aler", "and had ", "and i was ", "in our ", "in 19", "plot", "tight ", "unday ", "en to ", "sigh", "sight ", "aggres", "bum", "terms ", "compar", "no-", "notre ", "sugg", "ers have ", "in the world ", "ent.", "aig ", "you can't ", "meet", "new del", "marked ", "minor ", "aware ", "firm", "like it ", "said wednesday ", "ment of ", "a car", "who has ", "encour", "puer", "genes", "banking ", "worker ", "cook ", "legally ", "subjec", "rolling ", "under-", "defence ", "checking ", "month, ", "particip", "pension ", "recommended ", "provid", "15 minutes ", "ladim", "according ", "outside the ", "there was no ", "october", "coup", "century ", "shooting ", "unfortunately, ", "eagles ", "predictable ", "gather", "ninth ", "regional ", "indianapol", "festiv", "tennis ", "a solid ", "spyware ", "guaran", "rookie ", "&lt;/p&gt;&lt;", "a senior ", "), the ", "fed ", "jan ", "kick ", "laz", "mgm ", "nach", "oo ", "ralli", "sadd", "tire ", "zim", "ine, ", "relat", "ing: ", "ing, the ", "ing, but ", "station", "and my ", "acti", "lee ", "suite ", "oty", "prov", "pro ", "we're ", "toy", "fear ", "febr", "friday", "crack", "up.", "a cour", "a sch", "salt ", "playstation ", "thru ", "gged ", "syri", "men's ", "(ap) ap - a ", "sunday, ", "producer ", "!  the ", "directly ", "see the ", "rush ", "back. ", "sky ", "falling ", "louis", "associates ", "closest ", "closer to ", "increasingly ", "floor", "premier ", "religi", "block", "gaza strip ", "climate ", "members of the ", "overpriced ", "prince ", "george w. ", "msn ", "fashion", "stroke ", "atomic ", "vulner", "acquired ", "surgery ", "jakart", "at amp;t ", "february ", " tokyo ", "bing ", "bn ", "cn", "dow", "e; ", "lacks ", "t: ", "throw ", "induc", "arrest ", "sting ", "to an ", "on your ", "as long ", "is really ", "- and ", "afford", "from their ", "boys ", "flash", "price. ", "ares ", "last month ", "burrito ", "format ", "clever ", "ok, ", "ticket ", "marketing ", "hubby ", "open source ", "addres", "ment, ", "apping ", "hostile ", "nice. ", "buffet", "than-", "round of ", "version of its ", "my first time ", "struggl", "don #39;t ", "recovery ", "frequent ", "committee ", "veggie ", "franchise ", "ladimir ", "): ", "-and-", ":00 ", "= ", "edi", "e...", "hass", "jail", "ll", "rati", "s/", "yu", "s is ", "reality ", "resist", ". not ", "stated ", "ating the ", "in all ", "in north ", "asi", "was good ", "ley", "su ", "mets ", ", and a ", "been here ", "time for ", "pid ", "ance, ", "attitude ", "comments ", "is a great ", "airy ", "last time ", "sogg", "contain", "iraqis ", "also known as ", "make a ", "!!!! ", "talented ", "tickets ", "give this place ", "ariel ", "names ", "quiet", "wild", "provider ", "however, the ", "billion in ", "dream", "crowded ", "ask for ", "animal ", "aug. ", "department of ", "report: ", "killing at least ", "condition", "dessert ", "camera ", "ville ", "employment ", "browser ", "dallas ", "border ", "kid ", "lank", "pad", "sac", "sab", "x-", "inger ", "ed , ", "on wednesday, ", "of course ", "us-", "thetic ", "ts the ", "ed\\", "my car ", "you've ", "percent", "you could ", "! we ", "gif", "decla", "visits ", "engag", "warns ", "candid", "people are ", "capable ", "take a ", "cooper", "give you ", "give it a ", "tropical ", "half", "great.  ", "tennes", "standards ", "nov ", "hoping to ", "objec", "regard", "related ", "told the ", ", which was ", "able, ", "hearing ", "develop ", "post-", "passenger ", "brief", "gold", "disappointed", "talks with ", "applications ", "ify ", "wonderful", "raised ", "foreign minister ", "account ", "filled with ", "struggling ", "colorado ", "girlfriend ", "referred to ", "obvious ", "nigeria ", "nearby ", "columbi", "country's ", "candidate ", "itunes ", "verizon ", "suggest ", "$1", "p-", "sis ", "til", "tone ", "tical ", "uef", "vladimir ", "thick ", "inet ", "ary, ", "arab ", "sto", "and were ", "to end ", "to pay ", "as investors ", "essi", "for those ", "sham", "sured ", "sub ", "cons", "ull ", "one day ", "meg", "ation to ", "mont", "heating ", "when i was ", "flick ", "5 stars ", "icial ", "soon", "etary ", "overly ", "shif", "went in ", "do n't ", "it is the ", "exce", "face", "holid", "foods ", "download ", "high school ", "found in ", "drinking ", "set for ", "forced to ", "this place, ", "time.", "2-0 ", "walked in ", "types of ", "butter ", "writer ", "organization ", "presidential election ", "eggs ", "treasur", "required ", "pair of ", "identity ", "hilari", "individual ", "scandal ", "dodgers ", "cleveland ", "a bunch of ", "phenom", "buffalo ", "&lt;/p&gt;&lt;p", "(which ", "64 ", "bow ", "mam", "rental ", "raf ", "sounds ", "tam", "vacc", "wing ", "one's ", ", it's ", "sti", "stum", "ed of ", "often", "of them ", "as if ", "chen", "ched ", "ural ", "it out", "liam ", "beha", ") - the ", "one in ", "you have to ", "astron", "ident ", "porary ", "he's ", "like this ", "fla. ", "said it was ", "go there ", "times. ", "ence. ", "because it was ", "created by ", "the food and ", "course", "type ", "film that ", "glass", "defending ", "had a great ", "speed", "posted ", "happy hour", "following the ", "nightm", "gains ", "concept ", "seem to ", "centur", "complaint ", "troubled ", "cinematic ", "when it comes to ", "scott ", "noodle ", "najaf", "alcohol", "knowledge", "cocktail", "bryant ", "enthusi", "genesis ", "zimbab", "declared ", "astronau", "-pack", "cot", "dani", "e? ", "lav", "lish", "onc", "stop", "ica ", "to cut ", "elim", "eleg", "amusing ", "used in ", "for dinner", "river", "it all ", "old-", "lew", "lions ", "dee", "divi", "convers", "email ", "out in ", "viox", "in the same ", "protest", "place.  ", "ate here ", "few", "bris", "uture ", "very nice ", "sector ", "beck", "a sus", "ances ", "go here ", "sals", "salmon ", "wind ", "burrit", "contem", "(reuters) - a ", "do you ", "tool", "strikes ", "funds ", "securities and ", "appears ", "powell ", "technical ", "seriousl", "menu is ", "decided to try ", "small and ", "sources ", "odd ", "silic", "stopped by ", "considered ", "smoking ", "economic growth ", "cycl", "transpor", "satisfi", "factory ", "mouth ", "weapon", "fan of ", "rejected ", "discovered ", "auction ", "hungry ", "merck ", "london, ", "ri lank", "lett-pack", "hewlett-pack", "phenomen", "&lt;/p&gt;&lt;p&gt; ", "31 ", "bound ", "fy", "gate ", "idi", "ning the ", "wow ", "re, ", "icop", "to work ", "to win ", "to start ", "is expected to ", "i came here ", "uranium ", "adult ", "spy ", "ed, but ", "trend", "consci", "my experience ", "so the ", "brain ", "ant and ", "on the menu", ". i had the ", "a sha", "a bom", "age and ", "tort", "t of a ", "nortel ", "homem", "gging ", "into an ", "genre ", "entirely ", "dine ", "es to be ", "barry ", "summit ", "give them ", "announces ", "address ", "harry ", "to get a ", "nothing to ", "series, ", "bombs ", "deni", "student ", "web site ", "damn ", "despite the ", "butter", "reasonably ", "didnt ", "consistently ", "waitress was ", "copy", "effective ", "scription ", "patriots ", "ivory coast ", "crucial ", "carrying ", "intrigu", "computing ", "walt disney ", "fannie ma", "musharraf ", "($", "(i ", "-year-old ", "1,000 ", "bi ", "d) ", "kre", "kel", "kings ", "mate ", "ph ", "sinc", "sick ", "sells ", "tof", "v. ", "thy ", "ana", ", it was ", ", while ", "iced ", "atically ", "in  ", "es) ", "ession ", "assum", "iss", "it out ", "it had ", "haz", "m (", "spend", "protest ", "placed ", "has agreed to ", "grill ", "#39;s new ", "feet ", "tware ", "clou", ". the service was ", "marine ", "final", "images ", "use the ", "milk ", "a sou", "corp", "go to the ", "is a little ", "angels ", "iraq's ", "world series ", "shiite ", "service.", "don't get ", "night and ", "to be a ", "!  i ", "sentim", "refill", "pizza and ", "10 minutes ", "to reach ", "to return ", "seems to be ", "medit", "traders ", "right, ", "half of ", "structur", "passed ", "(afp) - ", "although the ", "messag", "reservations ", "lucky ", "processor ", "confident ", "cell phone ", "environment ", "banglad", "thoroughly ", "thomas ", "apologi", "grocery ", "hewitt ", "cingular ", "'s. ", "600 ", "ait ", "cash", "citing ", "dop", "jim", "jaz", "lan ", "lay ", "mar ", "sbc ", "tat", "tap ", "alber", ". great ", "ing\\", "sta", "and an ", "in town ", "chase ", "for all ", "for a b", "leg ", "that it is ", "aband", "with two ", ".  it ", "forest ", "from his ", "anda ", "were not ", "twent", "phel", "guerr", "end up ", "output ", "corp ", ".\\n\\nwe ", "\\$10 ", "engaging ", "your own ", "playoff", "newly ", "through a ", "wash ", "breaks ", "set up ", "partner ", "hit a ", "william ", "20 minutes ", "received a ", "passes ", "them. ", "hamas ", "kyo", "violent ", "japan's ", "appli", "depending ", "corporation ", "carrier ", "allowed ", "intelligent ", "shock ", "memorable ", "battled ", "carolin", "escape ", "federer ", "fashion ", "construction ", "as much as ", "situation ", "garden ", "embarr", "south africa ", "reflec", " chicago ", "27", "ges ", "hes", "hamp", "jum", "rated ", "sri lank", "reput", "a month ", ". she ", "an amazing ", "roo", "iron ", "unlike ", "was really ", "moz", "my order ", "pron", "toast", "has become ", "austri", "itious ", "fires ", "stories ", "red hat ", ". i don't ", "5 million ", "steps ", "outstanding ", "salsa ", "commerce ", "area. ", "back to the ", "; the ", "county ", "bury ", "max ", "off a ", "soup", "cloth", "new york", "typho", "say the ", "broken ", "huge", "pizza, ", "records ", "stream ", "agreed ", "majority ", "limit", "headed ", "generic ", "pleasantly ", "tively ", "japan #39;s ", "silly ", "silver", "launched ", "doesn #39;t ", "beautifully ", "view of the ", "saw the ", "moment", "tell you ", "scenes ", "filmmaker ", "circu", "among the ", "fifa ", "businesses ", "episod", "increase in ", "at the bar ", "scotland ", "noodles ", "measure ", "eventually ", "renewed ", "republican ", "sudanese ", "widely ", "shareholders ", "incorpor", "securities and exchange ", ".com ", "eh", "fellow ", "jav", "kat", "ly.", "mo ", "pag", "r.", "tag", "s from ", "angr", "enchil", "enrich", "o #39;", "rev", "resp", ". their ", "tip ", "haiti ", "theft ", "detain", "akfast ", "edin", "proce", "ultr", "... the ", "not even ", "wear ", "places to ", "scr", "disrup", "link ", "anton", "dozen", "if i could ", "said friday ", "steph", "delays ", "\\$3", "i was very ", "creep", "make the ", "seconds ", "izing ", "capsu", "calls for ", "produced by ", "published ", "begun ", "friendly staff", "double", "close to the ", "scoring ", "possible", "terrific ", "sprin", "i would have ", "fails to ", "drinks and ", "drinks are ", "(afp) afp - the ", "future", "smoke ", "successfully ", "apparent ", "pitcher ", "involving ", "batter", "baked ", "bottom ", "answer ", "learn ", "archit", "vietnam", "spacecraft ", "strateg", "premiered on ", "jerusalem ", "festival ", "candidates ", "deeply ", "hewlett-packard ", "1: ", "23", "49 ", "bon ", "dairy ", "e\\\" ", "gel", "gates ", "jacqu", "mers ", "nick", "popp", "rud", "tec", "tali", "wounded ", "yards ", ", even ", ", it 's ", "arding ", "alab", ". however, ", "ed about ", "to his ", "to ric", "in fac", "in order ", "chile ", "rodd", "amate", "usato", "adding ", "shin", "trac", "forb", "in the united states, ", "prefer", "provinc", "our waiter ", "meant ", "ids ", "mini ", "recep", "pie ", "end to ", "locked ", "epic ", "colombi", "e.  i ", "shake ", "i have had ", "anymor", "tasting ", "came here for ", "accur", "governor ", "air force ", "didn't even ", "announced the ", "datab", "patch ", "heading ", "north korea ", "experienced ", "doctor ", "proced", "roman ", "hamid ", "officials said.", "hype ", "applic", "buck", "efforts to ", "inc., ", "combo ", "historical ", "gordon ", "i have been to ", "meets ", "qualifying ", "hurricane ivan ", "frequently ", "teenag", "radical ", "rangers ", "telephone ", "egypt ", "remote ", "completed ", "benefits ", "mystery ", "supposed to ", "earthquake ", "newspaper ", "brussel", "ancient ", "caribbean ", "usatoday.", "'s", "aul", "bright ", "dame ", "hash ", "jim ", "kic", "kick", "vor", "wro", "zens ", "tha", "ende", "a in ", "es its ", "plant", "plants ", "und ", "for that ", "for breakfast ", "have", "ney", "theme ", "sion, ", "coming to ", "depar", "dim ", "novel", "spread ", "affl", "tro ", "conver", "weal", "all that ", "manage ", "twins ", "very good", "covery ", "will not be ", "awk", "compati", "surface ", "a cu", "outside", "ence, ", "ates the ", "here.", "friend's ", "slugg", "shift ", "schilling ", "funn", "casual ", "hotels ", "saturday, ", "staff are ", "nothing special", "eat here ", "hunt ", "a few times ", "fielder ", "to sit ", "washington - ", "romance ", "hamm ", "jewish ", "beauty ", "letter ", "ruled ", "caes", "i went to ", "extra", "efforts ", "racing ", "they've ", "front desk ", "authority ", "death toll ", "together", "appetizer ", "condition ", "britain #39;s ", "lord ", "artif", "establishment ", "virtual ", "responsible ", "awaited ", "annoy", "bringing ", "technologies ", "strategy ", "internal ", "behavi", "70", "cig", "e/", "lack", "ni ", "sir", "wounding ", "y. i ", "s at ", "the place ", "arily ", "a second ", "ali ", "ous. ", "it. the ", "omer", "iling ", "timore ", "usive ", "for one ", "it seems ", "ador", "deput", "apov", "dive ", "quire ", "frame ", "prote", "you'd ", "ic and ", "\\n\\ni ", "ting a ", "ition, ", "tuce ", "ician ", "helicop", "chef", "goods ", "much better ", "barrel ", "sung ", "facing ", "securities ", "univer", "music and ", "sky", "percent in ", "south korea ", "forced ", "needs to ", "hostag", "lawsuits ", "sharapov", "one of my favorite ", "away from the ", "wayne ", "passeng", "doctor", "nascar ", "lettuce ", "extreme ", "silver ", "apple computer ", "location. ", "sugar ", "prepare ", "broadcast", "awesome", "as well as the ", "mexican food ", "'', ", "perfect", "painful ", "demand for ", "inflation ", "access to ", "bloom", "nigerian ", "expensive", "major league baseball ", "pennsyl", "notre dame ", "george w. bush ", " to ", "32 ", "d'", "gang", "ji", "kim ", "mates ", "ption ", "instruc", "an.", "en. ", "request ", ". so ", "and very ", "is un", "iring ", "adri", "wif", "shang", "divid", "day of the ", "forgot ", "gett", "mars ", ": a ", "bod", "after an ", "compon", "cry", "offense ", "s and other ", "been to ", "storm", ", but not ", "upper ", "alive ", "alists ", "ies and ", "any of the ", "what was ", "salon ", "sales of ", "torn ", "hol ", "fuel", "for a few ", "burn", "english", "line of ", "musical ", "venue ", "facil", "game, ", "appeals ", "if you like ", "official", "kind", "announcement ", "showing ", "south kore", "fiction ", "say.", "patent ", "follow ", "follows ", "changing ", "doctors ", "brid", "effect ", "instant ", "continued ", "prime minister ariel ", "pasta ", "remained ", "central bank ", "running back ", "reached ", "multi-", "pilot ", "decision to ", "stayed here ", "forward to ", "ugly ", "scottsdal", "difficult ", "northwest ", "ukraine ", "random ", "fiscal ", "navy ", "veteran ", "dolphins ", "vodaf", "(cbs.mw) -- ", "petrole", "embarrass", "'s, ", "66", "hell ", "jet", "ming", "mau", "tuc", "ual", "ano ", "one.", "the service was ", "orle", ", he ", "stick", "in some ", "in new york ", "is it ", "usa ", "had. ", "libr", "\\n- ", "abuse ", "nobody ", "aki ", "movie", "out a ", "gem ", "perman", "ate and ", "aust", "ation is ", "will never ", "draf", "links ", "if your ", "pipel", "tural ", "a cou", "a swee", "the bas", "year's ", "times", "anger ", "micro ", "here's ", "overcome ", "china's ", "may not ", "pretenti", "news - ", "points and ", "latin ", "both the ", "told us ", "drops ", "maintain ", "nicely ", "quarter, ", "lobby ", "sweet and ", "restaurant. ", "watchdog ", "jury ", "slide ", "member of the ", "animated ", "moved to ", "didn #39;t ", "computers ", "baseball", "platform ", "effects ", "exampl", "appearance ", "on sunday.", "discuss ", "manufacturing ", "adults ", "delayed ", "conclud", "nasdaq: ", "premise ", "$5 ", "(p", "2. ", "99", "ather", "cents ", "dump", "jol", "jagu", "lo ", "les, ", "native ", "o.", "orland", "regre", ", just ", "alex", "ings of ", "and their ", "and two ", "to play ", "to stay ", "for your ", "ads ", "seas ", "set of ", "bute ", "this hotel ", "trail", "consul", "eman ", "oph", "pe=", "has no ", "auto", "oct ", "morgan ", "days of ", "manning ", "place to go ", "mind", "craig ", "illino", "if we ", "ups ", "miles ", "anced ", "a bas", "count ", "hero", "\\$1 ", "even more ", "order. ", "control", "a long", "solu", "colin ", "expects ", "i have to say ", "killer ", "a four", "netfli", "managers ", "refused to ", "kins ", "saturn ", "hoping ", "washington, ", "voy ", "purpose ", "women's ", "potentially ", "status ", "territ", "watched ", "spaces", "father ", "concerned ", "crowd", "explain ", "critici", "hardware ", "ferr", "remaining ", "cheese, ", "allegedly ", "admit ", "license ", "suggested ", "kidnapped ", "lessly ", "split ", "ltd.", "pedic", "alcohol ", "dumb ", "nasty ", "poorly ", "smooth", "knee ", "marathon ", "puerto ric", "indianapolis ", "typhoon ", "shangha", "fc", "gum", "kabu", "nut", "nam ", "tough", "yer ", "yellow ", "ind ", "the whole ", ". by ", "ed me ", "of our ", "chill", "es-", "plates ", "rid", "seed ", "bust", "buzz", "that were ", "apart ", "spots ", "edition ", "conspir", "in the last ", "today. ", "our first ", "you to ", "you have ", "s. they ", "bob ", "gian ", "after his ", "tion.", "guac", "a says ", "\\\"  ", "the bre", "carlos ", "area and ", "4 star", "home", "primary ", "du ", "man who ", "much more ", "where they ", "pretty good", "talent ", "killed and ", "film directed by ", "powers ", "greater ", "took the ", "million to ", "uniqu", "skip ", "way, ", "tomato", "until the ", "brian ", "settl", "version of the ", "citigroup ", "dogs ", "castle ", "arafat", "ipo ", "studios ", "automak", "blue", "on a sunday ", "materi", "the fried ", "retirement ", "compared to ", "partnership ", "jeff ", "athens, greece ", " of ", "800 ", "g, ", "gate", "his", "lying ", "ps to ", "tari", "wrec", "yah", "zy ", "orac", "resum", "revol", "to bring ", "itute ", "in central ", "is set to ", "at first ", "es)", "or even ", "ribs ", "olive ", "agio ", "this store ", "mobil", ") has ", "condem", "my family ", "preview ", "s, including ", "aim ", "from an ", "so i was ", "gru", "new england ", "impor", "can get ", "back in the ", "pub ", "ful of ", "iraq, ", "slam ", "southeast ", "clothing ", "may not be ", "larry ", "talk", "take the ", "juli", "american league ", "sen. ", "unions ", "operator ", "swiss ", "included ", "handheld ", "say, ", "location is ", "fox ", "sunday #39;s ", "charged with ", "the film", "passing ", "ramen ", "disappointed. ", "continued to ", "explain", "looks like ", "closer ", "given the ", "absolute ", "awesome. ", "delicious and ", "focus", "there's a ", "allowing ", "greenspan ", "henry ", "stadium", "advertising ", "sexual ", "secretary of ", "piracy ", "liberty ", "supposed to be ", "suspense ", "independent ", "font ", "telecommun", "liverpool ", "martha stewart ", "disaster ", "tehran ", "according to the ", "lewis ", "vioxx ", "vodafone ", "$2", "bble ", "hend", "i. ", "ion, ", "laur", "lows ", "nic ", "sound", "ziff ", "ers' ", "oning ", "stol", "and it's ", "to meet ", "ated to ", "in one ", "as its ", "is more ", "eler", "esp", "i wish ", "robo", "urge ", "for us ", "ned", "version", "beach", "shops ", "sues ", "vienn", "by saying ", "me a ", "pean", "greasy ", "meals ", "grace ", "s. we ", "day.  ", "utter", "blame ", "bother ", "their first ", "crush", "phas", "when she ", "king the ", ", but it's ", ". i think ", "interview ", "a cer", "a cle", "outstand", "and the service was ", "command", "presents ", "bern", "warming ", "e-mail", "again. ", "prior to ", "entive ", "symp", "!!!  ", "captured ", "called to ", "subscri", "palace ", "iraq #39;s ", "head of ", "head of the ", "including a ", "ment.", "software", "short-", "internet explor", "worth it", "this place! ", "european commission ", "atmosphere. ", "approxim", "officials said ", "laden ", "killed at least ", "in my opin", "group, ", "reservation ", "women #39;s ", "passion ", "ministry ", "felt like ", "said it will ", "popular", "islamab", "realized ", "rejects ", "also, ", "telecom ", "mandal", "tane", "on saturday.", "donald ", "swim", "index ", "conflict ", "a fan of ", "ield ", "length ", "sophi", "anticipated ", "lounge ", "as far as ", "san diego ", "deputy ", "c.", "cav", "cus ", "hall", "ior", "kof", "kod", "pent", "rent ", "ry, ", "si ", "ty. ", "tamp", "won a ", "y! ", "za ", "t a ", "in\\", "er, and ", "resign", "a place ", "i decided to ", "ama ", "ook", "le's ", "led, ", "agent ", "abc ", "ers who ", "my favorit", "pro-", "not very ", "entist ", "all you can ", "tos", "marvel ", "ted and ", "giv", "reci", "off, ", "it was the ", "intense ", "icious ", "icians ", "prices, ", "for a quick ", "again, ", "priority ", "syn", "eum ", "solution ", "clear", "sunday.", "acceler", "... and ", "gaming ", "2018 ", "chicken, ", "restaurant is ", "reviews and ", "(reuters) reuters - u.s. ", "addic", "showed up ", "short of ", "returns ", "rockets ", "without a ", "computer associates ", "pizza is ", "politic", "thanks", "photo ", "championshi", "following a ", "currency ", "continues to ", "launched a ", "lamb ", "september", "safe ", "jersey ", "cyber", "nyse", "drinks. ", "celebrate ", "easy to ", "struggle ", "reportedly ", "example ", "chance to ", "unveiled ", "feature", "cross ", "mistake ", "crab leg", "convicted ", "helpful and ", "philippines ", "nails ", "holdings ", "rescue ", "prevent ", "iranian ", "extends ", "speculation ", "attorney general ", "edinburgh", "jacques ", "(nasdaq: ", "5. ", "aa ", "eter", "gus", "j. ", "laid ", "nel", "pal ", "pure ", "var", "wann", "erly ", "erup", "o target=/stocks/quickinfo/fullquote\"&gt;", "to me ", "to our ", "in two ", "is one of the ", "ili", "at home ", "i #39;", "i always ", "ples ", "units ", "unbeaten ", "it . ", "haun", "beers ", "sie", "comed", "abduc", "de, ", "defi", "love", ".  \\n", "spa", "motors ", "my review ", "worry ", "s, or ", "place", "yet to ", "you would ", "go, ", "auburn ", "ocean ", "aven", "day, but ", "blaz", "ell, ", "decade ", "guest ", "he had ", "a sandw", "therap", "there.  ", "corrup", "4 million ", "visually ", "because of a ", "etic ", "breath", "prior ", "solve ", "down and ", "cold", "shak", "bartender ", "before i ", "smo ", "excuse ", "withdraw ", "where i ", "a fun ", "halli", "months, ", "begin", "10,000 ", "partners ", "russia #39;s ", "stupid ", "sional ", "compani", "bomber ", "receiver ", "a reserv", "offee ", "check out ", "quality of the ", "6-4 ", "volcan", "i went here ", "1-0 ", "interested in ", "beautiful", "form of ", "i don't know ", "websit", "consistent ", "presidential election", "retailers ", "immediate ", "saving ", "mouth", "becoming ", "operating system ", "on sunday, ", "spoke ", "convenient ", "thanks to ", "eighth ", "homemade ", "roddick ", "yahoo", "b.", "dal", "fligh", "h. ", "jal", "kur", "pup", "path", "wag", "thing, ", "oney ", "the service ", "entry ", "and  ", "and a half ", "oftware ", "to move ", "ammed ", "pledg", "iron", "adam ", "ques", "quit ", "this movie ", "prais", "they would ", "they also ", "tox", "toil", "toast ", "allawi ", "god ", "ocative ", "us military ", "coal", "blown ", "scar", "bost", "good but ", "doors ", "s.\\n", "guard", "incinn", "stepped ", "a cup ", "a sl", "a bir", "some of ", "some good ", "triang", "&lt;font ", "2003 ", "creating ", "man and ", "striking ", "i've eaten ", "venu", "year old ", "come back ", "signing ", "i'm a ", "matic ", "market, ", "appealing ", "lands ", "families ", "myan", "specials ", "approved ", "right. ", "releases ", "developed ", "bigger ", "to go to ", "communic", "supercomputer ", "crown ", "failure ", "exploded ", "think", "filmmaking ", "united states. ", "confirm", "gym ", "realize ", "rude and ", "credit card ", "jackson ", "dow jon", "stunning ", "blasts ", "annoying ", "deficit ", "a business ", "lawyers ", "gorgeous ", "volume ", "oscar ", "assembly ", "speech ", "cassini ", "sydney ", "capacity ", "saudi arab", "sun microsystems ", "architec", "wrote ", "kabul ", "approximately ", ")\\n\\n", ",\" ", "700 ", "ds", "ho ", "h, ", "ible ", "nan", "ray", "s!", "tab", "waff", "yell", "inch ", "a review ", "to order ", "on to ", "in japan ", "is too ", "champ", "accompl", "is. ", "rot", "amend", "ools ", "was great", "lev", "nev", "ador ", "sea", "bet ", "ter, ", "aps ", ") and the ", "vijay ", "one star ", "e, which ", "oce", "new orle", "day. the ", "day, and ", "scape ", "awards ", "recent", "flash ", "interne", "million, ", "alize ", "5 star ", "fred", "cars ", "first of ", "2002 ", "people in ", "pole ", "195", "china, ", "seasons ", "bank, ", "within a ", "capit", ".  i am ", "cooking ", "operation", "ministers ", "returning ", "largely ", "denver ", "style", "executiv", "announced that ", "ladies ", "compete ", "the film 's ", "having a ", "baghdad", "testing ", "no. 2 ", "joins ", "update 1-", "inc.'s ", "scientific ", "first, ", "innings ", "deserves ", "equally ", "introduce ", "cost of ", "planning to ", "ambianc", "yummy", "tokyo stocks ", "cancer ", "suppli", "membership ", "third-quarter profit ", "incredible ", "quarterly profit ", "ambitious ", "bush's ", "focus on ", "a car bomb ", "sensitive ", "occasionally ", "false ", "psychological ", "metal ", "this review is ", "delta air ", "my boyfriend and i ", "convincing ", "pepper ", "a bomb ", " chicago (reuters) - ", "securities and exchange commission ", "respond", "mandalay ", "kofi ", "hallibur", "9/", "aise ", "cair", "dc ", "ech", "ht", "hall ", "hond", "lc", "mitt", "pour ", "rings ", "sne", "really", "argu", "sty ", "st, ", "and that ", "in three ", "in southern ", "chopp", "es.\\n\\n", "acts ", "roast", "plastic ", "user ", "rio ", "hadn't ", "beans ", "sidel", "spit", "trail ", "email", "#39;re ", "peak ", "s. but ", "kee ", "featur", "portu", "bobby ", "flow ", "flaw ", ". i love ", "ated the ", "starring ", "a bar ", "the bal", "cub", "aret ", "i was so ", "contact ", "world cup", "polish ", "got there ", "solar ", "20-", "achi ", "achus", "court", "court to ", "president vladimir ", "if you don't ", "says the ", "recording ", "loss of ", "opera ", "difference ", "ment. ", "voic", "returned ", "without the ", "north kore", "half of the ", "pleasant", "released on ", "tomato ", "frances ", "politan ", "ranking ", "depth ", "location, ", "improved ", "yet another ", "bitter ", "bacon ", "luck", "filled ", "soldier ", "europe #39;s ", "massachus", "cancel", "satisfying ", "hawks ", "print ", "activity ", "neighborhood", "cabinet ", "astruc", "portrait ", "designed ", "bloody ", "church ", "infrastruc", "delightful ", "certific", "beckham ", "anahe", "bangladesh ", " a ", "$10 ", ")\\n", "28", "3) ", "cath", "cities ", "eut", "gay ", "gab", "lau", "nn", "pair", "pump", "qt", "s... ", "vs ", "ero", "st.", "still", "ing his ", "to avoid ", "is and ", "is being ", "es as ", "chas", "chain", "chair ", "rog", "urged ", "for three ", "for more than ", "rig", "it for ", "lemon", "adequ", "se. ", "that makes ", "she's ", "diag", "m and ", "quant", "spice ", "edic", "in the mood ", "one thing ", "and\\", "places in ", "our table ", "allen ", "had an ", "ation in ", "maria ", ":  ", "cocon", "blam", "gie ", "recru", "crap ", "about his ", "bike ", "surg", "locations ", "berlin ", "even if ", "earn ", "primar", "too. ", "wales ", "it is not ", "since it was ", "came with ", "produced ", "fund", "? the ", "prices were ", "drives ", "managed to ", "opener ", "happen ", "restaurant was ", "every time i ", "appy ", "severe ", "all the way ", "people. ", "record high", "furnit", "once again ", "corp. &lt;a href=\"http://www.investor.reuters.com/fullquote.aspx?ticker=", "experiences ", "text ", "system, ", "customer service. ", "gave us ", "quality of ", "signed a ", "drinks were ", "gold med", "organis", "fourth-", "samsung ", "3-0 ", "white house ", "animals ", "artist ", "graphics ", "broadcast ", "paul", "all-time ", "drawn ", "examin", "san francisco (reuters) - ", "mediocre", "journey ", "world's largest ", "reveal", "folks ", "continue to ", "morning, ", "mutual ", "ultimate ", "reminded ", "romantic comedy ", "chemical ", "criticism ", "district ", "georgia ", "difficult to ", "instruments ", "treasuries ", "vaccine ", "tortill", "enchilad", "dozens of ", "(ticker", "500", "65 ", ":) ", "aj", "c, ", "dad ", "dated ", "dress ", "gad", "hr", "jul", "l. ", "mud", "pill", "path ", "sir ", "sought ", "inary ", "ona ", "revis", "reform", "aria ", "alism ", "stays ", "es , ", "iled ", "at 8", "i did ", "i wanted to ", "issi", "eclip", "owor", "who", "need a ", "versu", "sively ", "dedic", "distr", "nois", "'s a ", "ts on ", "sp2 ", ") in ", "in the third ", "in the area ", "we sat ", "the future ", "occu", "mond ", "mins ", "will re", "discovery ", "line. ", "said its ", "it was just ", "end the ", "steady ", "az ", "no more ", "years.  ", "can you ", "poss", "posed ", "chechen ", "america, ", "something", "u.s.  ", "chipot", "museum ", "large", "tasty and ", "matt ", "complim", "on a friday ", "halo ", "took my ", "valent", "planes ", "to replace ", "understand", "reviews, ", "tonigh", "(reuters) reuters - a ", "chicken was ", "clubs ", "lyn", "boring ", "world, ", "everything is ", "arrives ", "software maker ", "him to ", "past the ", "corp. (", "provided ", "coming here ", "macar", "thank", "season. ", "ideas ", "fun and ", "hard-", "heavily ", "labour ", "live in ", "reservation", "scientist", "jama", "crude oil prices ", "sequences ", "support for ", "gradu", "expressed ", "involved ", "laughs ", "describe ", "redskin", "liked the ", "bills ", "quirky ", "ketch", "eligi", "southwest ", "aims to ", "updates ", "baghdad, iraq ", "specifically ", "citizenship ", "withdrawal ", "terms of ", "egyptian ", "percent, ", "than-expected ", "tennessee ", "hilarious ", "vietnamese ", "territory ", " athens ", "12-", "2,", "37 ", "49", "48 ", "abe", "b. ", "bal ", "dough", "pound", "vit", "went", "revi", ", has ", "a major ", "a group of ", ". . ", ". they have ", "and most ", "atic", "itz ", "in that ", "chor", "chat", "at best", "es; ", "es...", "aci", "acu", "isco", "oooo", "using the ", "ghor", "was in ", "being the ", "comment ", "that my ", "that can ", "absur", "shru", "ded, ", ".  but ", "quil", "ts for ", "edom ", "my friends ", "s, who ", "they can ", "toshi", "so far", "you don't ", "metho", "goal", "grab", "recall ", "his own ", "crack ", "over and ", "time warner ", "miles (", "surround", "which were ", "attacked ", "outsourc", "cubs ", "carne ", "expand ", "airport", "back on ", "filed ", "this place is a ", "because we ", "position", "chew", "overall", "controll", "world war ", "colon", "nextel ", "belong", "food.", "top of the ", "next week ", "driver", "business, ", "broc", "cerem", "stomach ", "hugh", "glut", "down, ", "loses ", "handle ", "virus", "room, ", "voip ", "invest ", "worth a ", "patr", "definitely not ", "providing ", "appropri", "saturday night ", "asked the ", "might have ", "super bowl ", "that it has ", "philos", "notch ", "instead", "controvers", "board of ", "attempt ", "bag ", "attack on ", "sandwiches ", "crispy ", "avoid", "murder", "along the ", "fish and ", "machines ", "oil, ", "fascinating ", "ville, ", "astronom", "portions are ", "ridiculous ", "having to ", "finals of the ", "picked up ", "dangerous ", "a burger ", "expos ", "freeze ", "jordan ", "penalty ", "admitted ", "guacam", "telecommunications ", "nyse: ", "occupi", "36 ", "5th ", ":00", "bo ", "border", "fid", "fake ", "gem", "jar", "mai", "male ", "rhy", "tte", "t, the ", "wenger ", "thai", "o q", ", iraq ", "a week", "along", "ings. ", "to put ", "in northern ", "of two ", "ch, ", "elo", "el, ", "actions ", "an american ", "roy ", "une ", "it was", "whom ", "lemon ", "seoul ", "liby", "beer and ", "that #39;s ", "that his ", "that she ", "debu", "detail ", "not-", ".  quot;", "exhib", "this film ", "frag", "are you ", "vibe ", "by an ", "you want ", "ks and ", "mont ", "us open ", "evil ", "more like ", ", but they ", "there for ", "tions, ", "upscale ", "alized ", "turk", "than a ", "start to ", "the bush ", "hike ", "out.", "what he ", "corner", "freak", "ollowing ", "at the same ", "files ", "stero", "because it's ", "duck ", "&lt;p&gt;", "i was not ", "diner ", "misses ", "strip. ", "never had ", "a hard ", "newcastle ", "s in iraq ", "take out ", "ticke", "complain ", "market.", "directors ", "britain", "one of the worst ", "techni", "agrees to ", "month.", "look like ", "fast and ", "fast food ", "skin ", "ski ", "house of ", "demands ", "lead to ", "receiving ", "each time ", "you can get ", "i am not ", "honor", "that it would ", "kerry", "hydro", "\\u00e8", "google inc. ", "despite a ", "fail ", "father", "flavorful ", "30-", "squad ", "secretar", "located in the ", "palestinian leader ", "transform", "grid ", "backing ", "federal reserve ", "crisp ", "drinks, ", "platform", "pathetic ", "suspect ", "happened to ", "cheaper ", "mississi", ".n&lt;/a&gt;", "emotionally ", "gentle ", "range of ", "thrown ", "pirates ", "negotiations ", "substanti", "on saturday, ", "bathroom ", "besid", "hawaiian ", "mix of ", "vice president ", "physical ", "saddam ", "zimbabwe ", "angry ", "massachuset", "-in ", "dam ", "dj ", "ft.", "g. ", "hh", "kir", "lor ", "mcl", "nug", "pt. ", "tas", "tay", "wau", "y) ", "thum", "intr", "inate ", "eric ", "er, the ", "ang ", "onion", "red, ", "really, ", ", if ", "a more ", "a film ", "albu", "and she ", "to stop ", "ate. ", "it. i ", "on wednesday.", "in love ", "in front of ", "as are ", "is great ", "ils ", "i wasn't ", "i ordered the ", "is: ", "plum", "it in ", "nether", "seeded ", "bear ", "buster ", "shame ", "with your ", "eding ", "trick ", ") news", "fram", "embattled ", "province ", "...  ", "we would ", "all over the ", "the full ", "god", "#39;s first ", "were the ", "parties ", "brunch", ". the only ", "boom", "after he ", "up. ", "internation", "two years ", "corn", "salty ", "sale of ", "cuban ", "beta ", "ever. ", "stere", "soap ", "soaring ", "sides ", "cleared ", "barrel", "capture ", "sche ", "complex", "games, ", "point of ", "movie that ", "billion, ", "palm ", "amazon ", "defend", "november", "showdown ", "10.", "nothing special ", "child", "tuna ", "patch", "wait for ", "experience.  ", "west indi", "half the ", "structure ", "neck ", "pizza was ", "mac and ", "settles ", "late night ", "fabul", "causing ", "ballo", "packers ", "a-col", "patient ", "steak and ", "funny , ", "closely ", "available", "grand slam ", "quick and ", "mmmm", "analyst ", "constitution ", "level of ", "revenu", "climb ", "longhor", "waste of ", "semble ", "decor is ", "bombing ", "factor) news", "referend", "photograph", "requires ", "newsfactor) news", "slopp", "valuable ", "(update1) ", "tragedy ", "liquid ", "accommo", "yogurt ", "magazine ", "adobe ", "religious ", "forbes.", "petroleum ", "secretary of state ", "&lt;font face", "primarily ", "newsfactor) newsfactor ", "33 ", "cand", "cum", "cant ", "cincinn", "ffl", "gap ", "gott", "iow", "maz", "pile ", "pink ", "sounded ", "ud ", "e (", "thri", "a deal ", ". its ", "ings to ", "stell", "ed on the ", "to  ", "chir", "actor", "actre", "aspec", "oli", "ola ", "se.", "best. ", "agend", "bull ", "- news - ", ") or ", "concentr", "out to be ", "preli", "prohib", "pers", "the fourth ", "our order ", "you should ", "mechan", "gren", "days, ", "two", "coal ", "scoo", "after it ", "dry and ", "evacu", "compens", "on the strip ", "over pric", "just not ", "he #39;s ", "great place to ", "for the most ", "a can", "the ball ", "hired ", "assi ", "prices. ", "can #39;t ", "for a second ", "ence.", "michel", "engin", "positi", "dual-", "wrapp", "with a group of ", "president", "clemen", "many of the ", "exciting ", "don't know ", "side of the ", "india #39;s ", "indiana ", "networking ", "ton of ", "brother", "7 percent ", "if you have ", "saturday.", "medium", "curt ", "found the ", "this is my ", "swit", "horse ", "ly-", "win over the ", "hours of ", "menu and ", "ottaw", "north carolina ", "receives ", "atmosphere, ", "a real ", "french", "buffets ", "register", "register ", "brown", "golf", "the film is ", "ryan ", "explosi", "energ", " new york (reuters) - the ", "thoughtful ", "st. hel", "televis", "thinks ", "raising ", "combat ", "imagination ", "transfer ", "high-end ", "competitive ", "christian ", "document ", "introduced ", "meatball", "choices ", "conditions ", "idea of ", "disputed ", "mp3 ", "ravens ", "extension ", "initial public ", "margaret ", "the burger ", "yards and ", "steelers ", "branch ", "advantage ", "wholes", "genuine ", "qaeda ", "chapter ", "tomorrow ", "button ", "guarante", "a school ", "stephen ", "rhyth", "&lt;font face=\"", "(not ", "(dow jon", "300", "34 ", "a,", "e!", "e!  ", "iest ", "kh", "os and ", "ral", "sick", "wand", "wav", "yl", "thes", "er. the ", "ensure ", ", so i ", ", especially ", "a us ", "a (reuters) - ", "alask", "ing their ", "to dis", "ele", "at hom", "or more ", "i (", "i get ", "ample ", "irrit", "it up ", "it just ", "ly and ", "seiz", "bey ", "age. ", "shell", "deut", "nox", ".  and ", ".  this ", "quis", "spoil", "this morning ", "tril", "day and ", "ford, ", "forgett", "my friends and ", "proof ", "by its ", "peri", "the fif", "ought to ", "monitor", "find", "place in the ", "will take ", "display", "about how ", "milwau", "alifor", "take-", "no matter ", "go back", "price, ", "sales", "donu", "charm", "back from ", "fili", "ailing ", "burg ", "\\$6", "\\$8", "england", "wars ", "ashim", "world trade ", "solar", "bang ", "india, ", "leadership ", "game. ", "right away", "appeal", "movie . ", "next week", "president george w. bush ", "enterpris", "monday night ", "the san ", "the sam", "announced a ", "international space station ", "doubl", "these guys ", "developing ", "settling ", "15-", "p.m.", "days after ", "faul", "making it ", "cipl", "spirit", "update 1: ", "looked like ", "located in ", "renov", "staff. ", "enjoy the ", "prepare", "premiership ", "citizens ", "allegations ", "digital music ", "wrong with ", "injuring ", "fruit ", "lifts ", "world cup qualifi", "(sports network) - the ", "at the bar", "revealed ", "vehicles ", "hitting ", "miracle ", "dynam", "sleep", "conviction ", "benefit ", "luxury ", "appreciate ", "acquisition ", "mushroom", "davis cup ", "wrap: ", "education ", "lived in ", "witnesses ", "simultane", "remarkable ", "a court ", "waffle ", "prelimin", "3. ", "44 ", "\\ne", "a/", "bone ", "cia ", "dust ", "eti", "favor ", "g.", "gag", "os, ", "oks ", "tent", "wm", "thus ", "then, ", "only", "the biggest ", "en.", "enforc", "require ", "outs ", "outrag", "ing! ", "and will ", "ating", "in september ", "of any ", "eless", "ess. ", "an agreement ", "roast ", "ootball ", "for 2 ", "sed. ", "shown ", "detec", "appointed ", "subur", "editor ", "of the season ", "worm ", "in the us ", "preseason ", "prove ", "ular", "we all ", "the following ", "endor", "has not ", "braw", "portable ", "mony ", "blade ", "disc ", "off-", "make", "making the ", ". i ordered the ", "local", "what to ", "only the ", "carter ", "winners ", "count", "owner", "siders ", "chech", "overseas ", "a late ", "priz", "solid", "barcel", "too bad ", "national league ", "ache ", "faced ", "film . ", "movie , ", "order of ", "great! ", "staff and ", "defen", "beginn", "at least one ", "over the next ", "looking to ", "touri", "approve ", "sweet", "far from ", ".\\nthe ", "season-", "communist ", "a bit of a ", "bbq", "real madrid ", "web sit", "spaci", "quality and ", "critics ", "umph ", "bond ", "i don't think ", "world #39;s largest ", "reaches ", "audiences ", "two-run ", "knowing ", "connectic", "quote, char", "established ", "believable ", "featured ", "com) washingtonpost.", "insurgent ", "gasol", "reminds ", "california, ", "scallo", "preced", "deploy", "washingtonpost.com) washingtonpost.", "linked to ", "commissioner ", "apartment ", "oklahoma ", "holiday", "copyright ", "capsule ", "shanghai ", "gateway ", "halliburton ", "mclenn", "&lt;font face=\"ver", "(/", "26", "bounc", "cells ", "das ", "del ", "hatt", "juni", "kmart ", "nel ", "ppi", "pounds ", "sag", "sam ", "sans ", "x.", "eness ", "restructur", ". no ", "ingu", "and got ", "itut", "in las vegas ", "of new ", "is on ", "chry", "chron", "at his ", "i usually ", "rooney ", "users to ", "for new ", "oles ", "whis", "least", "with our ", "with new ", "no.", "this was the ", "sugar", "oursel", "trend ", "try. ", ") is the ", "conce", "vibe", "proves ", "we waited ", "andre ", "stry ", "strang", "brands ", "monster ", "impac", "scary ", "scrat", ", and it ", "dr ", "phishing ", "about it ", ", the company ", "antan", "bian ", "pione", ". i ordered ", "two of the ", "a cas", "a care", "the bread ", "attach", "hide", "out-of-", "trigg", "deli ", "deleg", "who were ", "commer", "expands ", "in a move ", "presence ", "nationwide ", "warri", "warn ", "way of ", "closes ", "water, ", "made an ", "son and ", "facility ", "schum", "accentr", ".  i had ", "juice ", "2012 ", "ruin", "\\\" and ", "glory ", "both were ", "japan, ", "yesterday to ", "this is not ", "switch ", "titan ", ",000", "invas", "'' and ", "everything else ", "tradition ", "tradition", "arrival ", "makes me ", "right-", "investor ", "husse", "impression ", "that it will ", "town of ", "number one ", "damag", "faster ", "cheese and ", "tower ", "2-1 ", "london - ", "benedic", "labor", "slowly ", "sponsor", "safin ", "bagel", "slow and ", "tourist ", "delicious, ", "peace talks ", "championship series ", "arrang", "circul", "oil-", "cliff", "chips and ", "sadly ", "bought a ", "automatic ", "i'm not sure ", "meaning ", "reveals ", "seven-", "similar to ", "last-", "insigh", "chavez ", "contrived ", "agree with ", "microsoft's ", "extensive ", "portray", "exports ", "franchis", "favour", "acquisition of ", "tiger woods ", "constitutional ", "embassy ", "mosque ", "united kingdom", "strawberry ", "brilliant ", "new delhi", "old-fashion", "contemporary ", "doping ", "circuit ", "database ", "peanut ", "myanmar ", "newsfactor) newsfactor - ", "$20 ", "(also ", "29", "3,000 ", "3q ", "by-", "cow ", "cze", "gal ", "hr ", "kim", "led the ", "lv ", "mood", "rays ", "rail", "tz", "wo ", "s as ", "thful ", "infin", "ern", "an's ", "ans, ", "the government ", "a friend ", "al) ", ". then ", "st-", "of\\", "it-", "itarian ", "on yelp ", "of these ", "as it is ", "che ", "eland ", "eliz", "i do ", "amo ", "plaz", "ghet", "was also ", "wirel", "theastern ", "agon ", "ters, ", "dimen", ".    ", "this was a ", "truc", "emy ", "embr", "ement, ", "in the valle", "not much ", "its and ", "per-", "the family ", "has an ", "grat", "vet ", "ks of ", "brut", "twin ", "coordin", "ted by the ", "bos", "will have ", "drag ", "discipl", "crap", "about their ", "time in ", "time of ", "upbeat ", "y, a ", "inc.  ", "s to a ", "ffle ", "un security council ", "because it is ", "here! ", "\\$2.", "warr", "3 star", "northeast ", "players, ", "good.", "dual ", "vegan ", "a hot", "iz ", "and i am ", "everywhere ", "... but ", "europ", "minutes. ", "boosts ", "halt ", "reasons ", "says it ", "hopeful ", "midnight ", "titles ", "shore ", "going on ", "a few weeks ", "time.  ", "several times ", ". we had ", "crimes ", "husband", "honey", "pacers ", "rank ", "browns ", "\\u00e0 ", "disappointment ", "signs of ", "categ", "testi", "volun", "flavorful", "have to wait ", "i went in ", "madis", "viewers ", "pieces of ", "shares in ", "heavy", ".  \\n\\nthe ", "ankle ", "delivered ", "middle east ", "rice and ", "copies ", "rapid", "sweet potato ", "equival", "processor", "hospit", "stronger ", "company.", "america online ", "kidnapped in ", "for the first time in ", "destroy", "in which the ", "characters and ", "gross ", "ethnic ", "prepared to ", "estimates ", "replacement ", "significantly ", "routine ", "ada al-", "insight ", "contribu", "attention to ", "risk of ", "bruce ", "burger, ", "argentina ", "gilber", " new york (reuters) - u.s. stocks ", "file-sharing ", "manipul", "fannie mae ", "tofu ", "strategic ", "anaheim ", "controversy ", "referendum ", "switzer", "(quote, char", "05 ", "21", "51 ", "fab", "j.", "kk", "l'", "moo", "nc ", "nick ", "punch ", "sely ", "skill", "y.\\n\\n", "yum ", "indul", "inquir", "the latest ", "o is ", "reform ", "reduce ", "repair ", "a while ", ". very ", ". we were ", "stir", "steven ", "stale ", "sticks ", "and some ", "to launch ", "to provide ", "itty ", "itors ", "in her ", "assured ", "for sure", "adjust", "wim", "diver", "'s most ", ".  he ", "edwards ", "but also ", "ers from ", "ound, ", "my daughter ", "in the final ", "s, as ", "ice of ", "ice cream", "peter", "tob", "to, ", "aug ", "tedi", "manner ", "manhatt", "place that ", "will definitely ", "ting and ", "ting to ", "when it was ", "lins ", "antastic ", "upstair", "it was not ", "for the price ", "2 billion ", "triumph ", "years in ", "carto", "es, including ", "airbus ", "really nice ", "\\$7.", "2000 ", "i was really ", "formally ", "somehow ", "could have been ", "homer ", "homes ", "a la", "went to the ", "united nation", "three times ", "i have a ", "profile ", "too long ", "a hor", "and i were ", "achel", "since they ", "always a ", "governments ", "next month ", "give a ", "ologi", "president and ", "later, ", "home to ", "home run ", "reviews. ", "operator", "relations ", "nerv", "south korean ", "'' is ", "location and ", "lawmakers ", "makes the ", "stylish ", "author ", "to send ", "to save ", "however, i ", "palestinian", "ense of ", "1990", "affair", "slip ", "wondering ", "judg", "messaging ", "regular", "junc", "leaving the ", "jerry ", "front of the ", "emerged ", "professional", "devil ", "initially ", "7-6 ", "documents ", "at all. ", "shocked ", "believes ", "bombings ", "scottish ", "corp.'s ", "intended to ", "toppings ", "levels ", "relationships ", "decades ", "cocktail ", "housing ", "granted ", "spectacular ", "narrow", "prosecutors ", "republic of ", "n't", "chiefs ", "napster ", "cashier ", "a handful of ", "mount st. hel", "aggressive ", "related to ", "blockbuster ", "nightmare ", "pleasantly surpris", "momentum ", "hamid karzai ", "funny and ", "permanent ", "es)--", "kodak ", "thanksgiving ", "delta air lines ", "schumach", " san francisco (reuters) - ", "(nyse: ", "(washingtonpost.com) washingtonpost.", "11-", "3,", "700", "cf", "dil", "drow", "fancy ", "gent ", "gb ", "hire ", "je ", "ke, ", "mal ", "nca", "ped ", "tout ", "till ", "tall", "zi", "erable ", "oreg", "ening ", "o was ", "ret", "a decent ", "alway", "er #39;s ", "on of ", "in baghdad ", "as to ", "at their ", "es! ", "escal", "amus", "for many ", "was great ", "wiz", "sides", "ed.\\n\\n", "my last ", "provo", "protests ", "gear ", "pedi", "and/", "meter ", "vet", "parent ", "more. ", "mant", "heigh", "scop", "ted with ", "umin", ", and they ", "lind", "good things ", "said in a ", "interview", "tual ", "he will ", "for the second ", "5 percent ", "some other ", "taking the ", "hot and ", "es, a ", "in a bid to ", "for a new ", "really like ", "winds ", "elected ", "owned by ", "rave ", "do the ", "miam", "president, ", "ricul", "profit, ", "before they ", "new york yanke", "leading the ", "matter", "minutes and ", "minutes of ", "next to the ", "order the ", "now and ", "sub-", "manages to ", "broker ", "humor", "both times ", "amazing, ", "season of the ", "hopes of ", "room and ", "over the past ", "runner", "seemed to be ", "rooms were ", "under a ", "t-up ", "lowest ", "hit by ", "heart of ", "patrick ", "screw", "left the ", "one of our ", "heads ", "nice.  ", "denies ", "perform ", "honey ", "roman", "check in ", "philly ", "restaurant, ", "it 's a ", "calam", "baltimore ", "fergus", "collabor", "especially the ", "here for lunch ", "animation ", "comes with ", "justic", "leave the ", "increasing ", "cheesec", "graphic ", "infowor", "coup ", "nature ", "atlant", "specialty ", "allowed to ", "rebound", "coca-col", "above the ", "climb", "gentle", "returned to ", "stayed at the ", "activities ", "chairman and ", "big-", "entree ", "retired ", "xbox 3", "therefor", "eight-", "sudan's ", "comeback ", "u.s.-", "article ", "classi", "imaginative ", "cuisine ", "andrew ", "sticated ", "united kingdom ", " tokyo (reuters) - ", "enrichment ", "proceed", "adrian ", "orlando ", "a four-", "netflix ", "kofi annan ", "coconut ", "eclipse ", "philosoph", "&lt;font face=\"verdan", "!) ", "3g ", "7. ", "?! ", "a.  ", "cap ", "dann", "eis", "eous ", "hut", "hall of ", "i's ", "lec", "m) ", "p2", "task ", "win a ", "zuk", "e the ", "e a ", "ano", "ongoing ", ", in", "alitali", "ouse ", "stics ", "to use ", "to die ", "atis", "itis ", "in many ", "of those ", "elements ", "or two ", "assets ", "tire", "us\\$", "for being ", "it on ", "gho", "was a little ", "lex", "nets ", "wife", "agon", "bure", "compos", "abbey ", "with her ", "not. ", "loom", "- i ", "ed.  i ", "motiv", "emen ", "pregn", "we came ", "all over ", "peer ", "persu", "poc", "pover", "the fe", "go. ", "grant ", "auce ", "occup", "clam", "cosmo", "mining ", "fierce ", "store. ", "on the way ", "on the strip", "just as ", "there and ", "there #39;s ", "guine", "for the past ", "a coun", "the boo", "year. ", "at the end of the ", "for a good ", "berg", "here. the ", "formal ", "formerly ", "ship, ", "soul ", "wrap ", "missil", "down in ", "made by ", "before a ", "national football ", "everything", "new york yankees ", "houst", "microsoft has ", "les of ", "glori", "checks ", "loss", "series was ", "promin", "charges of ", "denied ", "hurd", "territor", "field, ", "sweep ", "execution ", "chosen ", "pulls ", "30 minutes ", "developer ", "that it 's ", "superb ", "said on wednesday ", "fastest ", "chinese food ", "younger ", "prime minister tony blair ", "wanted to try ", "africa ", "heaven ", "conventional ", "beer selection ", "justin ", "available to ", "cycle ", "shot dead ", "equal ", "reason i ", "''. ", "democracy ", "in 2005 ", "dominant ", "said it would ", "transport ", "reported.", "fixed ", "afternoon", "modest ", "a barrel", "suspects ", "boxing ", "polls ", "choice of ", "estimated ", "lineup ", "charlotte", "roundup ", "episodes", "suicide bomber ", "vendor ", "the free ", "a salad ", "the bartender ", "efficient ", "business.", "as good as ", "kabul", "collapse ", "biscu", "temperat", "subsidiary ", "alert ", "fewer ", "intriguing ", "phelps ", "behavior ", "pipeline ", "tampa b", "carne as", "turkish ", "explosives ", "-ray ", "24-", "?!", "b) ", "cat ", "dot", "ds, ", "hamil", "ium ", "jr. ", "lame ", "mr ", "nai", "page ", "penti", "send", "smu", "santa ", "tant ", "ond ", "the story ", "revel", "removed ", ", its ", ". ' ", "stall", "ing in the ", "to begin ", "to acquire ", "of your ", "as  ", "as oil prices ", "at the f", "i used to ", "amel", "for exampl", "ries ", "that had ", "absor", "app ", "div", "exact ", "spid", "ers in the ", "#39;ve ", "my hair ", "predec", "proper ", "from this ", "endang", "has always been ", "ate of ", "clash", "col ", "bln ", "crunch", "store, ", "just about ", "get it ", "interactive ", "milan ", "which i ", "a cre", "a city ", "service pack ", "2 percent ", "tribute ", "cust", "it's been ", "is a 201", "ffy ", "essor ", "es and a ", "creates ", "soul", "suppose ", "dinner, ", "miss the ", "colts ", "expert ", "i've tried ", "make you ", "smelled ", "news, ", "captiv", "schools ", "called a ", "how many ", "boost", "next time ", "drive-", "management", "staff is very ", "pizza. ", "every single ", "name, ", "sport", "points, ", "found a ", "bai ", "lycos ", "when i got ", "myself", "needed a ", "a little bit ", "advice ", "one of their ", "deliber", "generous ", "humm", "store is ", "voted ", "john howard ", "developed by ", "stayed at ", "general motors ", "......", "said on monday ", "championship", "covered ", "area of ", "young", "2004 (", "explic", "call for ", "middle", "staff, ", "awesome! ", "small, ", "city", "passport ", "emerge ", "janu", "ford motor ", "revenge ", "this location is ", "cross", "promising ", "destin", "blackberry ", "long-term ", "surviv", "where", "pedro ", "scheduled to ", "the federal reserve ", "dumpl", "excited to try ", "margin", "updated ", "vietnam ", "storytelling ", "kansas city ", "pga tour ", "kenneth ", "refugee ", "maryland ", "antonio ", "kicked ", "cigare", "maure", "yellow", "preliminary ", "gasoline ", "elizabe", "&lt;font face=\"verdana,", "(newsfactor) newsfactor - ", "); ", "4th ", "400", "ao", "b-", "bf ", "bast", "bands ", "dazz", "efully ", "fare", "gat", "ius ", "iously ", "ja ", "kal", "lley", "mi ", "mill ", "nb", "pfi", "punch", "rin", "t, and ", "inaug", "the right ", "repl", "retain", ", to ", ", i was ", ", it is ", "al\\", "ing.\\n\\n", "stati", "stations ", "and get ", "and now ", "to become ", "to win the ", "ites ", "itter ", "itself", "on the first ", "in to ", "of it ", "es.  the ", "escop", "isn #39;t ", "amous ", "owen ", "agassi ", "sher", "shouldn't ", "divis", "'s ) ", ".  she ", ".  we were ", "spa ", "spread", "affili", "this season ", "mohan ", "trash ", "emar", "but it's ", "out in the ", "they just ", "wearing ", "aide ", "me of ", "pervez ", "has announced ", "s. it ", "fee ", "days. ", "twist ", "marvel", "bless ", "after two ", "minu", "tion of the ", "dismissed ", "crashed ", "offset ", "phase ", "linked ", "making a ", "flag ", "milk", "which are ", "for the third ", "would have been ", "wax", "2 million ", "prices.", "in a new ", "3 stars ", "good-", "shipp", "do it ", "also be ", "shadow ", "i have never ", "newest ", "national basketball ", "belly ", "schwar", "how the ", "accident", "son's ", "weekly ", "booth", "next year.", "drivers ", "if you want to ", "entered ", "glaz", "record-", "downtown", "to resume ", "reviews on ", "monthly ", "months of ", "years ago, ", "looking forward to ", "price was ", "software, ", "telescop", "worlds ", "expectedly ", "fox", "laws ", "those who ", "north americ", "approves ", "pay for ", "must have ", "offerings ", "coming back ", "failing to ", "payment ", "joined ", "luke ", "considerable ", "greeted by ", "atmosphere and ", "improving ", "things to ", "witness ", "gaining ", "luck ", "dirty", "th-ranked ", "client", "pitched ", "supporting ", "laugh ", "terminal ", "returns to ", "descrip", "johnny ", "baker", "bakery ", "authentic", "seemed like ", "third-quarter earnings ", "pcs ", "attentive", "spark ", "threatened to ", "vacu", "worthy ", "region of ", "vania ", "scheduled ", "(update2) ", "journalist ", "assistant ", "the flavor", "responsibility ", "punish", "cisco systems ", "inventories ", "jumped ", "rescu", "notebook ", ", the world #39;s largest ", "wynn ", "tackle ", "optimistic ", "drunk ", "shrine ", "athletic ", "palmone ", "gulf of ", "desperate ", "under-par ", "divided ", "hesit", "double-", "brussels ", "wealth ", "a custom", "responsible for ", "a certain ", "sophisticated ", "corruption ", "jalap", "vijay singh ", "president vladimir putin ", "qtada al-", "west indies ", "(dow jones)--", "milwaukee ", "tourists ", "chrysl", "commerci", "pentium ", "&lt;font face=\"verdana,ms ", "6. ", "aar", "bor ", "brigh", "candy ", "eve", "gi ", "tan ", "vic ", "w/", "wn ", "wai", "th.", "thro", "oni ", "the second ", "rever", ", one ", "arbit", "a better ", ". the food was ", "and he ", "ico ", "er for ", "it! ", "itting ", "on thursday.", "in on ", "in any ", "es have ", "eling ", "at 10", "an awesome ", "am, ", "tious ", "usc ", "it to be ", "olic ", "siem", "tery ", "destruc", ".  it is ", "mozz", "confron", "consor", "fort ", "forgotten ", "ers for ", "worn ", "in the latest ", "in the fourth ", "praise ", "not the best ", "not bad", "peak", "so it ", "the flo", "endless ", "you might ", "parts of ", "brad", "braves ", "tee", "utter ", "coher", "gib", "place with ", "jobless ", "ello ", "ant, ", "biograph", "docom", "it was pretty ", "s to get ", "a cool ", "the bank ", "intell", "there.", "winner", "ownership ", "last night", "last night, ", "here, but ", "3 billion ", "home, ", "polite ", "chines", "tools ", "the food here is ", "  amp; ", "ousy ", "ousness ", "!!\\n\\n", "the firm ", "accessi", "talked ", "work and ", "complic", "juan ", "briton ", "restaurant and ", "wednesday to ", "fresh, ", "inc. #39;s ", "sporting ", "tension ", "relent", "sucks ", "look at the ", "full-", "skipp", "canada #39;s ", "used for ", "headquarter", "denn", "gart", "experience, ", "fields ", "prime minist", "online music ", "i am a ", "car bomb ", "impress", "birds ", "al-q", "said on thursday ", "bbc ", "letting ", "continues ", "organic ", "care of ", "hollinger ", "against the euro ", "history, ", "seem to be ", "premium ", "whether to ", "table. ", "extinc", "some of the best ", "delivers ", "ambience ", "focused ", "cold and ", "qualify ", "robin", "transl", "thousands ", "blu-ray ", "memorial ", "honestly, ", "afghanistan", "across the street ", "wiscons", "learned ", "houston astros ", "horrible. ", "ambass", "mln ", "lineback", "master ", "moscow", "charlott", "realnetworks ", "packed with ", "combination of ", "function ", "vendors ", "we've been ", "arrived in ", "challenges ", "this week, ", "conclusion ", "our server was ", "a busy ", "go-to ", "country, ", "embassy in ", "stanley ", "--------", "anthony ", "opponents ", "skep", "shoulder ", "melodrama ", "majority of ", "jaze", "taliban ", "sharapova ", "prime minister ariel sharon ", "internet explorer ", "pentagon ", "all you can eat ", "new orleans ", "spitzer ", "furniture ", "deutsche ", "chechny", "and/or ", "mauresmo ", "consorti", "-in-", "38 ", "45", "4) ", "41 ", "ave", "ding", "ft", "fame ", "gour", "gel ", "ii", "kent", "lur", "og", "oz ", "pat ", "pen ", "vital ", "woo", "wound", "waffl", "ycl", "inter ", "ine. ", "eno", "ened ", "enable ", ", that ", ", where ", "alp", "ald ", "and all ", "ing at ", "at, ", "on thurs", "on june ", "is the best ", "at times ", "i never ", "i saw ", "i hate ", "tier ", "unusual ", "unemployment ", "for what ", "haha", "owl ", "why", "agricul", "combo", "that works ", "shire ", "ded. ", "lot", "lov", "this year, ", "are so ", "but still ", "#39;ll ", "my only ", "they had a ", "we came here ", "from here ", "place.", "the fi", "goes to ", "#39;s main ", "ations.", "vey ", "string of ", "avoc", "very little ", "heated ", "bother", "will go ", "disease ", "pher", "when i'm ", "here to ", "over $", "flam", "bizar", "guantan", "which the ", "which has ", "inc ", "5 billion ", "a case ", "the bott", "deligh", "freez", "cuba ", "who have ", "who had ", "aire ", "really good", "positions ", "maver", "maxim", "earned ", "overnight ", "contest ", "contains ", "love it ", "dubb", "solic", "reporting ", "sink ", "service! ", "i've seen ", "rice, ", "veness ", "shadow", "barri", "schem", "funding ", "a family ", "gambl", "game against ", "did the ", "broker", "restaurant in ", "underst", "thats ", "back, ", "obtain", "seemed to ", "room. ", "shortly ", "fictional ", "inventive ", "eat at ", "ichiro ", "series.", "ready for ", "longest ", "quarter-", "mayor ", "state, ", "scores ", "domain ", "tivo ", "industry, ", "panthers ", "superior ", "jewel", "jeanne ", "said on tuesday ", "failed ", "currenc", "affect ", "balance ", "sudden", "classic", "burger was ", "cheesy ", "farm ", "deserve ", "investigators ", "co. &lt;a href=\"http://www.investor.reuters.com/fullquote.aspx?ticker=", "writes ", "blocks ", "celebrated ", "constantly ", "robust ", "document", "spotlight ", "attacks on ", "confirms ", "champions trophy ", "strongly ", "i'll be ", "tape ", "kidnappers ", "parking lot ", "second-largest ", "!!!!!!!!", "purchased ", "entrance ", "pushes ", "measure", "exceptional ", "existing ", "distribution ", "aviation ", "bush, ", "mysterious ", "stockhol", "grab a ", "frustrating ", "parts of the ", "songs ", "suffer ", "progress ", "victims ", "repair", "oldest ", "investigation into ", "addition to ", "tighten", "surrounding ", "conservative ", "pistons ", "encounter ", "haul ", "soggy ", "daniel ", "extraordinary ", "cryst", "the breakfast ", "coalition ", "freddie ", "diagno", "the bush administration ", "stereoty", "solaris ", "mclennan ", "invasion ", "lleyton ", "39 ", "5) ", "76", "aun", "bm", "c) ", "ceas", "dave ", "fus", "fred ", "glim", "khar", "mv", "non ", "nag", "nfl", "pom", "rome ", "tle", "u, ", "y.  the ", "an. ", "orm", ", was ", ", very ", ", the film ", ". just ", "and are ", "and even ", "to your ", "atop ", "itation ", "in 197", "in terms of ", "as were ", "is usually ", "at 7", "ess.", "i finally ", "is) ", "amster", "plain", "for her ", "rip ", "which", "leh", "lease ", "ters and ", "teriy", "depic", "diverse ", "nobel ", "exit ", "spare ", "afraid ", "suzuk", "ed.  the ", "modi", "out with ", "of the first ", "seren", "in the northern ", "gests ", "all my ", "perspec", "tocol ", "goof", "stron", "brain", "monetary ", "mari", "after i ", "section", "when my ", "more of a ", "about to ", "good food", "if he ", "said tuesday.", "old traf", "locals ", "taking a ", "what 's ", "can i ", "frey ", "cardi", "threats ", "filing ", "filet ", "filip", "angri", "angel ", "essentially ", "pub", "&lt;br", "sovie", "et, ", "overtime ", "world - ", "a low", "a law", "may have been ", "y. \\n\\n", "against a ", "many other ", "news: ", "capital", "belgi", "night of ", "how they ", "access", "accident ", "india and ", "matthe", "a famil", "juvent", "ty-", "brothers ", "staff was very ", "net profit ", "announced on ", "inc. is ", "tonight", "government has ", "swag", "10, ", "titans ", "limits ", "mainstream ", "going back ", "rocky ", "experience at ", "execut", "life and ", "patron", "a little more ", "personally ", "saturday #39;s ", "state-", "prime rib ", "fallen ", "san jo", "san franc", "keep the ", "them, ", "world) ", "nasa #39;s ", "a bit of ", "\\u00e4", "mobile phones ", "payments ", "6-2 ", "abilities ", "wednesday", "luster ", "truth ", "soccer", "increases ", "months ago ", "reason to ", "shrimp", "injuries ", "robin ", "excitement ", "total of ", "cell phon", "photos ", "wants to ", "spiel", "i've ever had", "publisher ", "substance ", "stuffed ", "contracts ", "suffering ", "bland and ", "sentence ", "dressed ", "impressed with the ", "sauce. ", "chemi", "martinez ", "behind the counter ", "the bartend", "independence ", "cowor", "aussi", "in the middle of the ", "mourning ", "nasdaq ", "wolves ", "thank you ", "gymnast", "insisted ", "accommod", "degree ", "bronze ", "environmental ", "sausage ", "lunar ", "metropolitan ", "kobe bryant ", "sri lanka ", "helicopter ", "pretentious ", "jaguar ", "fcc ", " athens (reuters) - ", "kerry's ", "junior ", "arbitr", " in ", "$25 ", "54 ", "66 ", "?) ", "athing ", "awhile ", "bin ", "cbs ", "fum", "fusion ", "gd", "lag", "nut ", "pes", "rend", "s,", "sap ", "sson ", "s\\\" ", "tz ", "tank ", "winter", "w/ ", "one.  ", "the number of ", "orbit ", "represents ", "a for ", "ales ", "oured ", ". this is ", ". the food is ", "stres", "ed us ", "and has ", "and no ", "atroc", "in what ", "in 198", "of her ", "as oil ", "i came ", "i tried ", "acon ", "an old ", "root ", "amy ", "uncertain", "using a ", "en #39;t ", "ley, ", "\\ni ", "that this ", "shallow ", "depot ", "apply ", "dies", "noki", "'s  ", "explan", "embrac", "vig", "in the next ", "wet ", "we'd ", "we have been ", "posal", "the fun", "aller", "ed to find ", "aston", "park, ", "tear ", "monte ", "manmohan ", "frigh", "umber ", "deri", "will help ", "ge of ", "cran", "joke", "do-", "said they ", "tion: ", "guess", "it was so ", "alist", "a cri", "a bro", "the bath", "delight ", "freedom ", "sales and ", "salsa", "desc", "committ", "charis", "charge", "2004.", "1 star ", "off of ", "people to ", "shipping ", "do i ", "try and ", "expect to ", "20, ", "ish: ", "quarters ", "a fantastic ", "games.", "netscape ", "summary ", "driv", "rug", "defends ", "family and ", "today #39;s ", "head coach ", "team has ", "oblig", "drinks", "at least once ", "shower ", "rell ", "harv", "harris ", "confus", "going to the ", "purpos", "law, ", "sci-fi ", "put on ", "time. the ", "north american ", "text", "released in ", "offered to ", "during his ", "move to ", "france, ", "worldwide", "super-", "supermarket ", "spring", "championships ", "fax ", "flavors ", "3-1 ", "square", "messages ", "patients ", "regulator", "junk ", "servers are ", "read the ", "jerse", "elsewhere ", "months ago", "rate of ", "awesome.  ", "11, ", "conferenc", "e.\\n\\nthe ", "consists of ", "'ll be ", "pc world - ", "pc world) ", "murdo", "all-star ", "shoot ", "designated ", "unveil ", "fried rice ", "decor and ", "answers ", "okay, ", "appears to be ", "bellagio ", "realiz", "incredible", "kitchen", "spark", "detailed ", "me and my ", "attract ", "let me start ", "projects ", "knocked ", "miller ", "impressed with ", "hills, ", "diplomatic ", "crafted ", "conduct ", "pad thai ", "marsh  amp; ", "laser ", "academy ", "fears of ", "diamond", "eriks", "evolution ", "jakarta ", "montg", "barry bonds ", "apologiz", "jimmy ", "in order to ", "swimming ", "halo 2 ", "redskins ", "alongside ", "secretary-", "secretary of state colin ", "cincinnati ", "ottawa ", "linebacker ", "guantanamo ", "pc world) pc world - ", "(d", "5,000 ", "ao ", "ahead", "eon ", "ey, ", "fec", "ips ", "jon ", "jay", "led to ", "mend", "map ", "naz", "osam", "pis", "pse ", "phis ", "pays ", "s\\n", "s), ", "d to ", "inn ", "ero ", "ans and ", "the \\\"", "the u.s. ", "refin", "replace ", "resigned ", "ary", ". they are ", ". there are ", "sting", "to offer ", "on september ", "on november ", "on tuesday.", "in europe ", "chun", "eli ", "i is ", "i wouldn't ", "i guess ", "i would", "is.", "for over ", "for a s", "for another ", "for breakfast", "haven ", "wides", "liest ", "sister", "buoy", "terry ", "compre", "that they are ", "ent to ", "shat", "with all ", "deem", "'s first ", "sper", "ed: ", "ed! ", "conn", "forum ", "ter and ", "prop", "one person ", "not that ", "ents. ", "we found ", "the field ", "our waitress ", "ation army ", "moral ", "bra", "brav", "manned ", "us stocks ", "finale ", "imac ", "cox ", "fries were ", "blow", ", and was ", "eves ", "illu", "ack of ", "about 10 ", "here in ", "good food ", "just to ", "said  ", "dec. ", "decep", "declar", "able to get ", "which is a ", "incid", "some people ", "out.  ", "most recent ", "pricing ", "trip", "triple ", "delicate ", "only had ", "highligh", "last night. ", "cannot be ", "overcooked ", "a, a ", "pride ", "suppo", "closed", "oil and ", "waters ", "less , ", "20th ", "of a new ", "where you ", "everywher", "company that ", "athy ", "she is ", "funni", "courte", "ist and ", "memphis ", "sush", "did n't ", "right to ", "2018", "next year, ", "subway ", "ounced ", "picking ", "monday to ", "``the ", "didn't get ", "amazing and ", "high court ", "relev", "team of ", "years after ", "by the end of ", "hopes for ", "harris", "different", "south of ", "hunger ", "series. ", "arriving ", "north korean ", "hard to find ", "votes ", "why i ", "pope ", "bar and ", "region, ", "them.", "war on ", "now. ", "server was ", "centre ", "disappointment", "stop by ", "calend", "news agency ", "association of ", "job cuts ", "drive thru ", "apple #39;s ", "viewing ", "growth in ", "jung", "touching ", "cleaning ", "graphy ", "elsewher", "attempts ", "competition", "investigating ", "presentation ", "er than the ", "admits ", "successor ", "college", "separat", "one-day ", "tempe", "plenty ", "shipments ", "taiwan", "(reuters) - the dollar ", "asked to ", "picky ", "attractive ", "exception", "suffered a ", "dressing ", "themselv", "founded in ", "mushroom ", "waitresses ", "wal-mart stores ", "germany, ", "poised to ", "lebanese ", "depressing ", "infring", "glass of ", "athletics ", "kennedy ", "coupon ", "at amp;t wireless ", "affordable ", "quietly ", "capable of ", "seriously, ", "corp.  ", "don't get me ", "twenty ", "reputation ", "sprint ", "amateur ", "universit", "spaceship", "hispan", "a sandwich ", "nevad", "honda ", "chirac ", "curt schilling ", "enforcement ", "czech ", "tobacc", "tampa bay ", "endangered ", "al-qai", "wisconsin ", "(pc world) pc world - ", "), but ", "-off ", "17-", "38", "@ ", "bic", "cep", "dick ", "d\\u00e9", "ek", "fell", "g-", "gin", "hec", "ia's ", "kies ", "lend", "lacked ", "m's ", "ms. ", "mick", "nur", "none ", "oz", "pan ", "pav", "pump ", "sic", "t, but ", "vast ", "yiel", "thu", "thday ", "this, ", "insan", "another", "the world ", "ench", "o of ", "resigns ", ". (", ". while ", "and they were ", "icals ", "atingly ", "in a b", "in china ", "in recent ", "as in ", "as one of the ", "is on the ", "elson ", "illegally ", "at t ", "at that ", "at best ", "or not ", "i ever ", "i felt ", "unexpected ", "us.", "for  ", "for you", "it can ", "habit", "olds ", "that they have ", "ative, ", "with all the ", ".  so ", "this little ", "trash", "contest", "vibr", "vikings ", "they did ", "weather", "today's ", "the fast", "our food ", "grey ", "gov", "more.", "mann ", "el and ", "! they ", "code", "place and ", "der, ", "discover ", "his second ", "ities in ", "phil ", "like an ", "like this", "line, ", "here for a ", "am and ", "fly", "just how ", "said today ", "decl", "guide ", "great food", "5 minutes ", "starter ", "a bin ", "the bus", "done. ", "highway ", "istan, ", "for a third ", "winning the ", "pressure", "because i was ", "2005", "2008 ", "war-", "ed by an ", "3 times ", "over, ", "off its ", "contain ", "prior", "ishi ", "sunni ", "smell", "don't think ", "tasty. ", "since it ", "captures ", "easi", "waiting to ", "a fas", "game.", "points to ", "cases ", "2014 ", "rubb", "says he ", "amazon.", "the sandw", "home and ", "down. ", "security and ", "customer", "defend ", "know that ", "stands ", ", i am ", "loss to ", "regarding ", "enjoying ", "nothing but ", "empty", "voter", "skill ", "rocke", "rocked ", "experience was ", "british hostage ", "scientist ", "put the ", "charging ", "providers ", "sept ", "field", "sweeping ", "buffet, ", "test against ", "hotel and ", "ness and ", "possibil", "thought it was ", "hype", "system.", "celtic ", "joined the ", "institu", "continuing ", "bene", "ure, ", "ballmer ", "stopping ", ", 2017, ", "bad. ", "heaven", "cultural ", "regulatory ", "raised its ", "distingu", "football coach ", "gained ", "shoppers ", "cambodi", "rating", "phony ", "florida, ", "peoplesof", "oracle corp. ", "array ", "suspici", "hurricane iv", "update: ", "chips, ", "hospital", "henman ", "treasure ", "satisfied ", "gyro ", "population ", "keny", "talk about ", "destination ", "council", "hook", "cruise ", "purchased a ", "visited the ", "attraction ", "warnings ", "column", "natural gas ", "knock ", "bathroom", "journal ", "function", "valley.", "last week, ", "yasser arafat", "nominated ", "mitsub", "expanded ", "crude oil futures ", "installment ", "figure out ", "pleaded ", "lebanon ", "decline in ", "hasn't ", "wave of ", "driven by ", "academic ", "km) ", "motion picture ", "minimum ", "enhanc", "plus: ", "traffic", "activi", "provocative ", "wildlife ", "sabot", "burrito", "sentimental ", "depending on ", "dim sum ", "sluggish ", "artificial ", "tucked ", "a sweet ", "pedicure ", "triangle ", "html", "infrastructure ", "eligible ", "saddam husse", "gotta ", "cliffe ", "wo n't ", "(quote, chart) ", "mount st. helens ", "ncaa ", "ferguson ", "pfizer ", "&lt;font face=\"verdana,ms sans ", "spielberg ", "'s\\", "22", "33", "55 ", "ain the ", "bat ", "boun", "bot", "dha", "etr", "eway ", "e... ", "fty ", "h.", "lil", "les. ", "luk", "matt", "pout", "pud", "rent", "rough ", "rical ", "swa", "sashim", "va. ", "wt", "woul", "thunder", "inely ", "ann ", "en-", "restor", "reaction ", ", she ", "a number of ", "ous to ", "stamp ", "ed with the ", "ing this ", "to show ", "it, but ", "on monday.", "in a s", "of that ", "as their ", "at 9", "es\\", "plc ", "plagu", "tip", "unlikely ", "for most ", "was still ", "neu", "seag", "coming", "that they were ", "with other ", "dean ", "division", "- but ", "spin ", "afe ", "this a ", "sued ", "opted ", "in the united stat", "in the third quarter ", "prescription ", "proposal", "prou", "not been ", "not just ", "we arrived ", "all about ", "be a ", "to. ", "so good", "yeah ", "has taken ", "has gone ", "meters ", "av ", "mann", "manic", "immigr", "scam", "drum", "crush ", "crappy ", "joke ", "jokes ", "reuters.", "figur", "over to ", "bie ", "if not ", "said thursday.", ". i have been ", "interven", "old and ", "surf", "it was very ", "ated in ", "two stars ", "step", "a back", "2 star", "what a great ", "years to ", "carl ", "comment", "is a good ", "in a row ", "rowing ", "counting ", "knight ", "etc. ", "overall, ", "tree ", "also a ", "oil giant ", "oil prices and ", "with a few ", "with a friend ", "strip, ", "shape ", "anything", "next-", "since its ", "ing a new ", "new york -- ", "i'm sure ", "next door ", "subsequ", "subtle ", "give the ", "reading the ", "7 million ", "7 billion ", "agree to ", "hopes to ", "this is the best ", "relative ", "australia, ", "merr", "something to ", "out of town ", "dropping ", "grown ", "skir", "percent of ", "win in ", "hit or ", "worth of ", "trademar", "singer ", "issued ", "record high ", "makes you ", "honor ", "general kofi annan ", "hot dog", "&lt;b&gt;...&lt;/b&gt; the ", "odd", "earnest ", "watching the ", "s: the ", "listed ", "team.", "explained ", "!\\n\\nthe ", "nuclear weapons ", "in an effort to ", "sample ", "straw ", "1-1 ", "packag", "madison ", "white sox ", "yang ", "global warming ", "suggests ", "reasonable", "comfort ", "gains in ", "moves to ", "i have been here ", "citizen ", "coupon", "tell me ", "reached a ", "jan. ", "terrorists ", "murph", "democrats ", "cirque ", "atorial ", "appetizers ", "qualified ", "hollywood", "massac", "consumer electronics ", "theatre ", "complaints ", "to find out ", "colorful ", "emotions ", "tapas ", "dutch", "living in ", "promised ", "appointment", "occasion ", "eaten here ", "corporate tax ", "beyond the ", "pushed ", "com) space.", "vacation ", "artist", "mutu ", "route ", "knock", "tables and ", "mesmer", "co.uk", "philippine ", "the flavor ", "a break", "seeking to ", "minutes to get ", "spring roll", "console ", "symbol", "prisoners ", " london (reuters) - oil prices ", "spurs ", "money and ", "storyline ", "gonna ", "beans and ", "overwhelm", "shaped ", "hurricanes ", "space.com) space.", "spinach ", "competitors ", "lazy ", "brisket ", "\\$10 million ", "java ", "pennsylvania ", "illinois ", "criticiz", "championship.", "roasted ", "luckily ", "britain's ", "substantial ", "thumbs ", "fabulous ", "p.m.; ", "simultaneously ", "connecticut ", "cheesecake ", "elizabeth ", "chrysler ", "san jose, ", "spaceshipone ", "tobacco ", "mitsubishi ", "'s.  ", "(r", "150 ", "21-", "4,", "7,000 ", "86 ", "?? ", "aes", "bq ", "c-", "dates ", "e' ", "fda ", "gp ", "gut", "hal ", "lv", "les and ", "lane ", "pes ", "pawn ", "qb ", "ratt", "sap", "senti", "savor", "s!  ", "sangri", "tes", "tag ", "von", "vou", "vali", "vint", "wrest", "y...", "zo ", "zoo", "s or ", "ind", "inexpensive ", "er.  ", "ernie ", "ontari", "the two ", "the perfect ", "ensemble ", "remove ", ", because ", ", although ", "argum", ". you ", ". good ", "ings.", "stin", "ing on the ", "to lead ", "to visit ", "iter", "on one ", "on new ", "in search ", "of being ", "is definitely ", "is often ", "ely", "at 6", "es? ", "i feel ", "i couldn't ", "act of ", "an important ", "an interesting ", "isse ", "rod", "rodri", "tips ", "unlimited ", "unexpectedly ", "used by ", "for more ", "for any ", "for both ", "ridge ", "nest", "agents ", "ayce ", "that it's ", "that i have ", ".  they have ", "this month ", "this weekend ", "fry ", "are very ", "considers ", "out at ", "my mom ", "vivend", "in the past", "in the wake ", "geograph", "one more ", "one year ", "one of its ", "not as ", "its a ", "weight", "so that ", "so glad ", "the famil", "s. it is ", "new hamp", "string ", "portion of ", "clashes ", "very friendly ", "very friendly and ", "fine. ", "coke ", "uman ", ", and then ", "minority ", "diseas", "said. ", "ella ", "story and ", "just like ", "said \\\"", "tions to ", ". i got ", "surfac", "ture and ", "a can ", "a crow", "a small", "some of its ", "the bro", "intens", "carni", "highlight ", "charlie ", "ppi ", "this place and ", "ance and ", "\\$8.", "engros", "i was told ", "maur", "basis ", "brewer", "way through ", "players and ", "homeland ", "duke ", "dubai ", "too.", "walks ", "with a new ", "services, ", "i've only ", "expects to ", "clever", "lax ", "bars ", "u.s. open ", "don't have ", "capp", "where to ", "indians ", "products, ", "president bush's ", "sensu", "inclu", "see a ", "iraq war ", "union", "underground ", "every other ", "by the time ", "long time ", "runner ", "limit ", "kids and ", "void ", "confeder", "victories ", "canada, ", "expected to be ", "the car ", "the coffee ", "advoc", "personal", "again and ", "way.", "probable ", "impressed. ", "sauce", "thought the ", "portfol", "hybri", "stay in ", "team, ", "signature ", "6-3 ", "energet", "employees are ", "service is always ", "wheel", "i went there ", "offer for ", "balanc", "juris", "es that are ", ", 2017", "update 2-", "combination ", "intel corp. ", "grizz", "moving to ", "movement ", "ovo ", "death of ", "two-day ", "boycot", "filling ", "human rights ", "interest rate ", "initiative ", "analysis ", "amount ", "personal computer ", "happened ", "ireland", "rebound ", "amazing! ", "life, ", "immediatel", "in vegas. ", "thousand ", "control of ", "had to wait ", "publicly ", "cancel ", "shock", "shocks ", "close to my ", "urgent ", "second-quarter ", "cruis", "learning ", "toward the ", "size of ", "a big fan of ", "unless you ", "joint venture ", "paul hamm ", "warns of ", "sleep ", "recommendation ", "retail sales ", "qualit", "understand why ", "much-", "remodel", "seafood", "talking about ", "portions were ", "worse than ", "necessarily ", "staying at the ", "microsoft, ", "a corp. ", "diplomats ", "ignored ", "sooo ", "correct ", "in the middle of ", "lenovo ", "margarita ", "argentin", "dance floor ", "narrow ", "jenni", "sustain ", "medicine ", "devastating ", "pullout ", "faith ", "tomorrow", "innovative ", "pharmaceut", "omelet ", "najaf, iraq ", "reasonably pric", "appeals court ", "a long-", "conspiracy ", "hender", "versions of ", "avenue ", "amendment ", "internet, ", "fourth-quarter ", "outsourcing ", "margaret hass", "noxious ", "forgettable ", "donuts ", "brawl ", "old-fashioned ", "volunte", "heavyweight ", "(washingtonpost.com) washingtonpost.com - ", "pervez musharraf ", "siemens ", "gymnastics ", "secretary of state colin powell ", "osama bin ", "widespre", "co.uk/", " is ", "'m ", "(born ", ").\\n\\n", "2: ", "72 ", "78 ", "ael ", "ea ", "een ", "fate ", "fool ", "gim", "jays ", "kr", "kris", "mum", "none of ", "pon ", "pai", "sno", "sake ", "ti ", "xin", "yam", "zur", "s up ", "th. ", "in.", "insp", "inher", "the un", "the price ", "the owner ", "enst", "envoy ", "reson", ", his ", "arn", "ara ", "arthr", "ed or ", "and you ", "and waited ", "ing about ", "iche ", "icc ", "to allow ", "ater ", "itanium ", "on it ", "on friday.", "in the", "in four ", "of a s", "is no ", "chi ", "at $", "or so ", "or just ", "an hour", "old, ", "was extremely ", "lege ", "nee", "neal ", "nepal", "neapol", "lip ", "beds ", "beer, ", "\\n-", "com. ", "comcast ", "that can be ", "abled ", "with lots of ", "deal, ", "noise ", ".  no ", ".  i have ", "expi", "quake ", "moc", "trapp", "confirm ", "emphas", "but was ", "my new ", "my own ", "..... ", "get. ", "we just ", "we love ", "we had the ", "peer-", "persist", "toys ", "so long ", "had some ", "grac", "ations to ", "ad allawi ", "feed", "branch", "clint", "marines ", "cob", "fries. ", "scare ", "disk ", "joel ", "de la ", "eller ", ", the world's ", "here was ", "good food, ", "incident ", "great food ", "a camp", "a bill ", "\\\". ", "service that ", "the bill ", "attitu", "most powerful ", "pricey", "tripl", "only a ", "toral ", "busy", "ever, ", "wine and ", "visu", "because he ", "\\$3.", "2001 ", "england, ", "3 million ", "into this ", "ways to ", "(ap) - ", "oil price ", "water. ", "walker ", "barr", "while i ", "and i love ", "come in ", "cape ", "fact ", "schol", "eased ", "victim ", "es. \\n\\n", "work of ", "governing ", "summ", "weeks, ", "manager, ", "trojan ", "media c", "glaci", "amazingly ", "wasnt ", "valenc", "know the ", "find it ", "room for ", "operates ", "merge ", "empire ", "had a good ", "lowered ", "company. ", "world.", "world. ", "hund", "hunting ", "lunch and ", "the case ", "without any ", "doubles ", "claiming ", "long, ", "personality ", "atmosphere", "searching ", "let the ", "far more ", "nec ", "during my ", "hotel is ", "ranks ", "odds ", "( listen", "nuclear-", "disappointed.  ", "caused ", "stop in ", "coffee and ", "6-4, ", "takes a ", "prime minister john howard ", "notch", "pastram", "selection is ", "badly ", "label", "green bay ", "atmosphere was ", "regulator ", "coupl", "crisp", "someone who ", "planning ", "seems like ", "reports that ", "jobs, ", "raptors ", "so we decided to ", "retailer, ", "hotel. ", "history of ", "control of the ", "cinemato", "gyro", "between the two ", "vegetabl", "fy the ", "college football ", "humanitarian ", "mph ", " amp; co. ", "role in ", "as well. ", "com) usatoday.", "down the street ", "estimat", "substitute ", "dow jones ", "radar ", "raiders ", "bangk", "my friend and i ", "feels like ", "takeover bid ", "dress", "determine ", "michigan", "science fiction ", "burgers and ", "consolid", "hackney", "warmth ", "mourin", "a federal judge ", "militant group ", "salvation army ", "country.", "in iraq, ", "portion siz", "overwhelming ", "twisted ", "caused by ", "exercise in ", "peacekeep", "nikkei average ", "recalls ", "premier league ", "referred to as ", "astronauts ", "elegant ", "uranium enrichment ", "mozill", "in fact ", "usatoday.com) usatoday.", "wifi ", "components ", "materials ", "stolen ", "utterly ", "saudi arabia ", "champag", "featuring ", "complimentary ", "lynch ", "gluten ", "appropriate ", "massachusetts ", "actress ", "quisite ", "tedious ", "junction ", "intellec", "consortium ", "gourmet ", "amsterdam ", "teriyaki ", "strongh", "eriksson ", "separatist ", "beneath ", "merrill ", "jurisdic", "jennifer ", "krispy ", "(usatoday.com) usatoday.", "). i ", "04 ", "14-", "14, ", "24, ", "39", "4,000 ", "b, ", "boll", "bond", "dai", "equot", "fanc", "ft) ", "jhtml", "khan ", "nad", "ricky ", "sends ", "tably ", "ugh", "vy ", "vap", "wit ", "zo", "zu ", "s . ", "er, but ", "erran", "onic ", "orb", "resume ", "aren", "arch ", "a person ", "als.", "ington ", "ingham ", "stad", "stak", "stops ", "ed off ", "and to ", "ata ", "ateral ", "er in ", "itz", "on all ", "on july ", "in october ", "in july ", "of us", "chat ", "elook", "acom ", "as.", "as. ", "an israeli ", "ism", "roof", "ira ", "tial ", "unsettling ", "en and ", "neat ", "aded ", "seatt", "be, ", "\\n ", "bu ", "that their ", "shall ", "should", "with me ", "dium ", "loan ", "'s is ", "suing ", "trump ", ") the ", "my sister ", "have an ", "aids ", "all three ", "peps", "pert ", "toy ", "the four ", "yeah, ", "aint ", "grabb", "ate to ", "ation with ", "parall", "fet", "ida", "very very ", "cozy ", "dispos", "crab", "ities of ", "joy ", "store and ", "on the same ", "over its ", "over an hour ", "just one ", "said monday.", "tionary ", ". i really ", "for the last ", "a cold ", "b and ", "the bom", "the back ", "est-", "no idea ", "go to a ", "only two ", "at the athens ", "at the end of ", "filed a ", "berl", "&lt;strong", "2009 ", "1 million ", "i was in ", "format", "friends. ", "dinos", "before, ", "services to ", "i've never been ", "bar. ", "sunday", "before it ", "the first thing ", "company has ", "came back ", "course, ", "group inc. ", "game of ", "#39; #39; ", "directed ", "hugo ", "great. the ", "friday to ", "week of ", "then the ", "curb ", "the software ", "to reduce ", "high end ", "customers. ", "underwhel", "&lt;/strong", "& the ", "season of ", "back-to-", "obnoxious ", "10th ", "handsets ", "relatives ", "merely ", "looking at ", "story of ", "russia's ", "ly, the ", "mainten", "\\u30", "saying the ", "foss", "patter", "software giant ", "garage ", "postpon", "1.0 ", "olympi", "these days ", "calif.", "action against ", "politics ", "philips ", "hot dog ", "hyp", "mobile phon", "signal ", "concern", "calm ", "explore ", "financequot", "pieces ", "&lt;a href=\"http://www.reuters.", "masal", "wide receiver ", "guns ", "equity ", "buddy ", "two-year ", "passion", "sat down ", "along with the ", "salad, ", "rape ", "better. ", "consumer confidence ", "oriented ", "anyone who ", "strongest ", "17, ", "agreement with ", "around the world ", "life-", "duty ", "vegetable ", "vegetari", "tel avi", "meal. ", "arsene ", "resident ", "sparked ", "commitment ", "long-awaited ", "on  wednesday ", "acceptable ", "african union ", "identified ", "threat of ", "guilty to ", "xbox one ", "industries ", "ridiculously ", "adopted ", "-of-the-", "bayer", "nomin", "knowledge ", "houses ", "respect ", "suffers ", "embargo ", "aiming to ", "tempe ", "partial ", "princi", "practically ", "hands down ", "implement", "half-life ", "pad thai", "satellite radio ", "rivalry ", "spammers ", "telecoms ", "flu vaccine ", "laptop ", "jeffrey ", "targeting ", "licensing ", "swedish ", "pyong", "shut down ", "impossible to ", "up.jhtml", "columbia ", "silicon", "silicon ", "mediterran", "reception", "awkward ", "passengers ", "bloomfield ", "regret ", "saturn #39;s ", "siege ", "ceremon", "album ", "stellar ", "clemens ", "alifornia ", "precedented ", "a hotel ", "inquiry ", "a horri", "achelor", "ologists ", "nervous ", "schumacher ", "service pack 2 ", "accessible ", "lleyton hewitt ", "glimpse ", "soviet ", "chemistry ", "connect ", "vivendi ", "widespread ", "co.uk/financequot", "peer-to-", "hundred ", "krispy kre", "elookup.jhtml", "&lt;strong&gt;", "dinosaur", "&lt;/strong&gt; ", "&lt;a href=\"http://www.reuters.co.uk/financequot", "&lt;a href=\"http://www.reuters.co.uk/financequotelookup.jhtml", " after ", "(\u02c8", ".o target=/stocks/quickinfo/fullquote\"&gt;", "250 ", "56 ", "68 ", "bin", "dawn ", "ear ", "fought ", "gm", "ha ", "jes", "ji ", "kan", "mel ", "mature ", "nis", "none of the ", "tall ", "wage ", "wish", "wings, ", "thick", "an\\", "on.  ", "the night ", "enorm", "rein", "rewards ", ", after ", ", more ", ", self-", "arrog", "a  quot;", "a former ", "a star ", "a full ", "a strong ", "ou ", ". if ", "and as ", "ing to the ", "to open ", "ated, ", "it.\\n\\n", "on may ", "on iraq ", "in other ", "in early ", "in august ", "es or ", "chim", "at 5", "at any ", "at night ", "es.  i ", "essive ", "i haven't ", "ism, ", "robb", "for it ", "for nearly ", "ripped ", "it is", "it didn't ", "it gets ", "was $", "whi", "need to be ", "ades ", "comics ", "that being ", "that doesn't ", "shre", "shine ", "with us ", "with more ", "with great ", "dig ", "diet ", "m inf", "'s best ", ".  their ", "export ", "exhau", "edon", "eddie ", "tracking ", "truck", ") for ", ") but ", ") is an ", "fran", "contrad", "out of a ", "serena ", "s, and the ", "not enough ", "they could ", "its not ", "we tried ", "poker ", "poign", "g and ", "has some ", "metap", "gosl", "ate in ", "asts ", "parag", "up their ", "twin", ". the series ", "imper", "cos", "fries and ", "blan", "scap", "bol ", "after they ", "recre", "recycl", "t; ", "compas", "compound ", "cramp", "cracked ", "offshore ", "when you're ", "fianc", "more and more ", "about $", "liness ", "storms ", "over priced ", "flicks ", "pierc", "tions and ", ". i got the ", "turf ", "turke", "great place ", "ated by the ", "steam ", "stepp", "a cat", "a cap", "ance. ", "wait was ", "the bat", "the bad ", "locally ", "attend ", "ies of ", "go in ", "price.", "and the other ", "timely ", "loose ", "salmon", "ing to a ", "in a deal ", "...\\n", "visible ", "warding ", "i was expecting ", "formed ", "spectr", "even as ", "ordered to ", "off and ", "rach", "people that ", "ating and ", "credi", "slap", "love this ", "went back ", "sym inf", "colleagu", "three years ", "shawn ", "bar, ", "since we ", "belt ", "company is ", "easier ", "food. the ", "prices for ", "did i ", "minutes, ", "on a friday night ", "type=", "2017", "now that ", "president of the ", "stomach", "power to ", "refers ", "picks ", "around and ", "streets ", "downright ", "freshly ", "every day ", "inc. and ", "think the ", "team #39;s ", "should have been ", "government #39;s ", "by the end of the ", "to get the ", "confused ", "when i first ", "business and ", "internet service ", "investor's ", "issued a ", "bombar", "market share ", "1.5 ", "happy with the ", "popcorn ", "start of the ", "so i decided to ", "until i ", "quite a ", "brie", "totten", "general manager ", "report on ", "there are no ", "said on tuesday.", "ramen", "web search ", "held hostage ", "fast, ", "plan for ", "joining ", "'ve seen ", "nuclear program", "culture", "justify ", "distur", "director of ", "otherwis", "attempts to ", "bitter", "privately ", "privacy ", "er-than-expected ", "salad and ", "case of ", "when you walk ", "costa ", "consisted of ", "presidential candidate ", "to take a ", "platter ", "royal", "suspend ", "the only thing ", "ement.", "supports ", "paper", "automo", "automatically ", "davis) ", "lifetime ", "darfur region ", "reveal ", "available for ", "realistic ", "island of ", "humans ", "emerging ", "bigley ", "threatened ", "measures ", "president bush and ", "teenage ", "worthy of ", "        ", "raids ", "re-election ", "quality", "dollars in ", "choose from", "nine-", "music, ", "constructed ", "journalists ", "opinion ", "challenging ", "engineering ", "comedies ", "action-", "district of ", "the burgers ", "hole in the ", "as part of a ", "mentioned ", "vows to ", "logic ", "waste your ", "zarq", "occurred ", "loyal ", "promotion ", "refugees ", "stretch ", "faithful ", "us-led ", "briefly ", "cheney ", "eliminate ", "transportation ", "cingular wireless ", "kyoto pro", "revolution ", "espn ", "subscribers ", "giving the ", "portugu", "chipotle ", "medium-", "period", "wizards ", "xbox 360 ", "danny ", "hamilton ", "mozzare", "jazeera ", "bizarre ", "understand the ", "juventus ", "murdoch ", "a fascinating ", "&lt;font face=\"verdana,ms sans seri", "xinhu", "fossil ", "&lt;a href=\"http://www.reuters.co.uk/financequotelookup.jhtml?ticker=", "contradic", "sym infoty", "type=sym infoty", "$$", "$30 ", "(i", "(space.com) space.", "-dollar ", "2,000 ", "27, ", "46 ", "69 ", "75", "=news", "bold ", "bage ", "cough", "cuc", "coul", "daw", "dough ", "dick", "ech ", "flin", "f1 ", "hallow", "ideal ", "ks, ", "lab ", "mashed ", "n&lt;/a&gt; ", "n: quote, profile, research) ", "qant", "rag", "slight ", "s--", "uf", "ux", "x. ", "\u00e9 ", "eric", "ange", "the entire ", "a key ", "stain", "and only ", "and never ", "ing . ", "ing is ", "to look ", "to add ", "to settle ", "itable ", "on mon", "on her ", "in it ", "of course", "is one ", "is that the ", "elebr", "ille ", "i recently ", "acrob", "asse", "roof ", "amen", "ecu", "for 3 ", "rive", "it back ", "ghz ", "ghrai", "was too ", "while, ", "ney, ", "nepal ", "adill", "admission ", "seized ", "live", "theory ", "bump", "with one ", "dier ", "dian ", "did. ", "expos", "quits ", "this morn", "superf", "ource ", "trick", "day in ", "congo ", "but i was ", "have had ", "have some ", "ota, ", "they use ", "wester", "we went to ", "placement ", "place! ", "greet ", "ally, the ", "aine ", "new jersey ", "fees ", "more", "bring the ", "tear", "clause ", "martial ", "fined ", "impos", "blon", "sco ", "bob", "boba ", "gio ", ", and it was ", "offer to ", "jok", "about its ", "am i ", "on the phone ", "red so", "red vel", ", but it was ", ", but also ", "just in ", "just got ", "mild ", "great for ", "for the next ", "for the second time ", "s to have ", "a cute ", "starving ", "\\\".  ", "tri-", "tribun", "it's just ", "it's always ", "back at ", "busy. ", "...but ", "\\$us", "2005, ", "eton ", "your food ", "earns ", "rail ", "slash ", "slammed ", "soup, ", "gene ", "genoc", "missour", "sole", "chinat", "report.", "before. ", "much of ", "made my ", "u.s. military ", "new, ", "accuses ", "indie ", "india's ", "she has ", "new york city ", "work. ", "work . ", "securit", "security, ", "movie 's ", "next door", "legend", "subscription ", "managing ", "entering ", "ed on thursday ", "took me ", "valet ", "downstair", "landmark ", "tens of ", " quot;the ", "state and ", "ymous ", "hoped ", "obtain ", "definition ", "addition", "lighting ", "titled ", "mental ", "seemingly ", "out of my ", "south african ", "continental ", "forcing ", "traded ", "this place. the ", "hung ", "without being ", "single-", "risks ", "general", "lead over ", "tourist", "approv", "announced today ", "ranch ", "bird", "birming", "terribly ", "browser", "check it out", "settled ", "communication ", "said on friday ", "said on wednesday.", "probably the best ", "ramall", "seen as ", "watchable ", "stay at the ", ". it is a ", "team's ", "cat=news", "2004 -- ", "did not have ", "bench", "thought", "powered ", "electrical ", "foreign", "ask the ", "middle-", "burger and ", "patio", "18, ", "aign ", "jeremy ", "this was my first time ", "officers ", "historically ", "strip mall ", "become a ", "info q", "whether the ", "wooden ", "mmm", "beef and ", "fights ", "sandwich was ", "ness, ", ", or even ", "terrorist", "admir", "carries ", "50-", "house, ", "offers a ", "electronic", "eating at ", "million.", "orioles ", "san francisco - ", "processors ", "pitcair", "similar", "eager to ", "dependent ", "100,000 ", "arafat #39;s ", "i can say ", "sudan #39;s ", "burgers, ", "corp., ", "error ", "bolster ", "published by ", "sexy ", "flew ", "montreal", "delicious! ", "near-", "accepted ", "establishment", "choose from ", "tacos and ", "languag", "distributor ", "desktop search ", "promptly ", "motorola ", "virtually ", "suspension ", "republicans ", "representatives ", "soooo ", "liquor ", "gravy ", "partially ", "tiger wood", "princip", "acquires ", "recogniz", "advanced micro ", "roger federer ", "prosecutor ", "venezuela ", "venezuelan ", "rums", "society ", "rafael ", "addition to the ", "bouti", "deeper ", "abu ghrai", "sentenced to ", "beverag", "scrambl", "acknowledge ", "new delhi ", "tropical storm ", "stumbled ", "conscious ", "abandon", "guerrill", "fifa world cup ", "gelato ", "pe=info q", "in my opinion", "toilet ", "sidelin", "libya ", "besides ", "taylor ", "longhorn ", "world cup qualifier ", "tentative ", "prominent ", "hummus ", "national basketball association ", "qtada al-sadr ", "aaron ", "khartou", "perspective ", "derived ", "coming-of-", "sentiment ", "vintage ", "hackneyed ", "siliconvalley.", "mediterranean ", "briefl", "type=sym infotype=info q", "type=sym infotype=info qcat=news", "(3", ").  the ", "22-", "89 ", "ae", "aer", "bam", "by, ", "dak", "ders and ", "g5 ", "hemis", "ix ", "kas", "kno", "kum", "kath", "kung ", "kswag", "m-", "phe", "s..", "tball", "vani", "wak", "wire ", "s  ", "s was ", "inem", "anne", "the one ", "o (", "revolu", "arts ", "ary. ", "a of ", "a third ", "ston", "ed into ", "to write ", "on october ", "on august ", "in five ", "in october", "of what ", "is as ", "elin", "i called ", "actic ", "rozen ", "rovers ", "ampl", "plus, ", "uring ", "use", "used a ", "it in the ", "it has been ", "gh ", "was super ", "wheat ", "their", "themat", "themed ", "ague ", "tering ", "commod", "that is the ", "that i had ", "lover", "'s and ", "exag", "this particular ", "sures ", "track", ") was ", "convince ", "emale ", "out there ", "pray", "we did ", "peg ", "permission ", "tod", "so good ", "you 're ", "me-", "me.", "metre", "gra", "grant", "ate at ", "@0", "@1", "@2", "@3", "@4", "@no", "@yes"], "merges": [["e", " "], ["s", " "], ["t", "h"], ["t", " "], ["d", " "], ["i", "n"], ["e", "r"], ["a", "n"], ["y", " "], ["o", "n"], ["th", "e "], ["o", "r"], ["e", "n"], ["o", " "], ["r", "e"], [",", " "], ["a", "r"], ["a", " "], ["a", "l"], ["o", "u"], [".", " "], ["in", "g"], ["s", "t"], ["e", "d "], ["an", "d "], ["ing", " "], ["i", "c"], ["o", "f"], ["t", "o "], ["a", "t"], ["er", " "], ["i", "t"], ["on", " "], ["in", " "], ["of", " "], ["o", "m"], ["a", "s "], ["i", "s "], ["e", "s "], ["c", "h"], ["e", "l"], ["i", "l"], ["a", "t "], ["e", "s"], ["or", " "], ["i", " "], ["a", "c"], ["a", "s"], ["an", " "], ["i", "s"], ["r", "o"], ["a", "m"], ["l", " "], ["p", "l"], ["e", "c"], ["o", "o"], ["u", "r"], ["i", "r"], ["t", "i"], ["v", "e "], ["u", "n"], ["u", "s"], ["f", "or "], ["r", "i"], ["i", "t "], ["en", " "], ["k", " "], ["l", "y "], ["h", "a"], ["o", "w"], ["th", " "], ["al", " "], ["o", "l"], ["g", "h"], ["p", " "], ["w", "as "], ["w", "h"], ["a", "y "], ["l", "e"], ["n", "e"], ["a", "d"], ["w", "i"], ["s", "e"], ["l", "i"], ["th", "e"], ["v", "er"], ["b", "e"], ["s", "i"], ["\\", "n"], ["a", "g"], ["b", "u"], ["a", "y"], ["t", "er"], ["c", "om"], ["th", "at "], ["er", "e "], ["a", "b"], ["en", "t "], ["at", "i"], ["s", "h"], ["wi", "th "], ["d", "e"], ["a", "p"], ["d", "i"], ["n", "o"], ["m", " "], ["l", "o"], ["'", "s "], [". ", " "], ["e", "x"], ["-", " "], ["q", "u"], ["t", "s "], ["s", "p"], ["l", "e "], ["a", "k"], ["a", "f"], ["th", "is "], ["s", "u"], ["e", "d"], ["ou", "r"], ["m", "o"], ["t", "r"], [")", " "], ["f", "r"], ["s", "t "], ["n", " "], ["w", " "], ["d", "ay "], ["f", " "], ["ar", "e "], ["c", "on"], ["e", "m"], ["h", " "], ["o", "p"], ["f", "or"], ["t", "er "], ["bu", "t "], ["ou", "t "], ["ar", " "], ["er", "s "], ["ou", "n"], ["c", "e "], ["of ", "the "], ["ch", " "], ["s", "er"], ["#", "3"], ["om", " "], ["#3", "9"], ["#39", ";"], ["m", "y "], ["oo", "d "], ["v", "i"], ["w", "or"], ["in ", "the "], ["p", "re"], ["ha", "ve "], ["o", "t"], ["p", "ro"], ["u", "l"], ["b", "y "], [".", "."], ["p", "r"], ["v", "er "], ["s", ", "], ["g", "e"], ["i", "gh"], ["on", "e "], ["no", "t "], ["ic", "e "], ["en", "t"], ["the", "y "], ["it", "s "], ["w", "e"], ["l", "d "], ["y", "ou"], ["a", "i"], ["w", "e "], ["al", "l "], ["b", "e "], ["m", "e "], ["p", "e"], ["ic", " "], ["p", "er"], ["e", ", "], ["p", "o"], ["fr", "om "], ["an", "d"], ["t", "o"], ["pl", "ac"], ["al", "ly "], ["s", "o "], ["il", "l "], ["the ", "f"], ["en", "d"], ["g", " "], ["y", "e"], ["es", "t "], ["our", " "], ["g", "re"], ["you", " "], ["ir", " "], ["h", "as "], ["m", "e"], ["\\n", "\\n"], ["al", "l"], ["ow", " "], ["ha", "d "], ["g", "o"], ["'", "t "], ["a", "in"], ["g", "r"], ["ed ", "to "], ["at", "e "], ["#39;", "s "], ["a", "u"], ["s", ". "], ["as", "t "], ["0", "0"], ["o", "c"], ["ati", "on"], ["a", "d "], ["a", "st"], ["ou", "ld "], ["ati", "on "], ["ser", "v"], ["ne", "w "], ["v", "e"], ["k", "e"], ["w", "ere "], ["p", "ar"], ["f", "e"], ["s", "e "], ["i", "d"], ["ou", "gh"], ["st", "r"], ["k", "s "], ["u", "p "], ["m", "or"], ["b", "r"], ["th", "er "], ["a", "v"], ["t", "e"], ["d", "ay"], ["k", "e "], ["p", "or"], ["m", "on"], ["m", "an"], ["t", "w"], ["c", "l"], [". ", "the "], ["m", "ar"], ["el", " "], ["u", "t"], [":", " "], ["ver", "y "], ["u", "s "], ["f", "in"], ["!", " "], ["i", "m"], ["c", "o"], ["s", "om"], ["h", "e"], ["f", "ri"], ["b", "l"], ["it", "y "], ["s", "c"], ["t", "ed "], ["b", "o"], ["g", "i"], ["0", " "], ["us", "t "], ["u", "m"], ["plac", "e "], ["af", "ter "], ["the", "ir "], ["d", "er"], [", ", "and "], ["m", "in"], ["es", "s "], ["u", "c"], ["ti", "on "], ["w", "ill "], ["d", "r"], ["il", " "], ["am", "e "], ["d", "is"], ["an", "t "], ["e", "v"], ["oo", "d"], ["u", "ter"], ["a", "w"], ["re", "c"], ["s", "ai"], ["t", ";"], ["t", "ing "], ["h", "is "], ["g", "e "], ["com", "p"], ["c", "r"], ["il", "l"], ["of", "f"], ["it", "i"], ["e", ". "], ["s ", "and "], ["j", "o"], ["s", "ec"], ["ac", "k "], ["p", "h"], ["d", "e "], ["wh", "en "], ["re", "uter"], ["f", "i"], ["f", "ir"], ["ic", "h "], ["mor", "e "], ["el", "l"], ["li", "ke "], ["ab", "out "], [", ", "the "], ["l", "in"], ["to ", "the "], ["be", "en "], ["st", "or"], ["h", "ere "], ["m", "ak"], ["t", "y "], ["am", " "], ["g", "ood "], ["k", "ing "], ["on ", "the "], ["o", "ver "], ["an", "t"], ["f", "l"], ["re", "d "], ["el", "y "], ["k", "ed "], ["ti", "me "], [", ", "but "], ["b", "i"], ["j", "ust "], ["ow", "n "], ["th", "ere "], ["d", "o"], ["s", "."], ["i", "f "], ["n", "'t "], ["i", "'"], ["sai", "d "], ["p", "i"], ["ti", "on"], ["ge", "t "], ["x", " "], [". ", "i "], ["d", "ec"], ["th", "ing "], ["u", "p"], ["pl", "e "], ["ab", "le "], ["us", "e "], ["g", "u"], ["ar", "d "], ["o", "ther "], ["in", "ter"], ["m", "il"], ["we", "e"], ["ol", "d "], ["s", "ur"], ["it ", "was "], ["it", "e "], ["ay", "s "], ["en", "d "], ["t", "u"], ["al", "i"], ["a", "in "], ["h", "e "], ["wh", "ich "], ["y", ", "], ["t", "ur"], ["d", "er "], ["igh", "t "], ["in", "c"], ["ough", " "], ["th", "an "], ["el", "l "], ["m", "ent "], ["b", "ec"], ["gre", "at "], ["s", ") "], ["for ", "the "], ["at", "ed "], ["tw", "o "], ["s ", "to "], ["5", " "], ["st", "e"], ["a ", "c"], ["st", "ar"], ["oun", "d "], ["a ", "s"], ["an", "c"], ["a ", "b"], ["w", "ould "], ["ic", "k"], ["b", " "], ["\\", "\""], ["som", "e "], ["serv", "ice "], ["w", "a"], ["the ", "b"], ["lo", "c"], ["at", "t"], ["t", "ak"], ["h", "i"], ["a", "z"], ["as", "s"], ["ag", "e "], ["qu", "ot"], ["s ", "of "], ["e", "st"], ["2", " "], ["in", "t"], ["i", "es "], ["on", "g "], ["n", "o "], ["an", "y "], ["th", "er"], ["ou", "t"], ["it", "ed "], ["mo", "st "], ["wh", "at "], ["en", "ce "], ["c", "or"], ["ing ", "the "], ["ic", "i"], ["(", "reuter"], ["(reuter", "s) "], ["g", "o "], ["pr", "ic"], ["t", "ri"], ["ou", "s "], ["and ", "the "], ["d", "el"], ["ye", "ar"], ["ti", "m"], ["l", "oo"], ["c", "an "], ["is", "h "], ["f", "re"], ["s", "al"], ["an", "n"], ["il", "e "], ["ing ", "to "], ["c", "u"], ["it", "'s "], ["wh", "o "], ["pe", "o"], ["on", "ly "], ["ed ", "the "], ["d", "on"], ["c", "ar"], ["vi", "e"], [".", "\\n\\n"], ["d", "es"], ["h", "igh"], ["com", "m"], ["ch", "ar"], ["i", "g"], ["a", "re"], ["ol", "l"], ["at ", "the "], ["ex", "p"], ["ad", "e "], ["is ", "a "], ["t", "or"], ["-", "- "], ["h", "o"], ["th", "re"], ["ac", "k"], ["a", "p "], ["es", ", "], ["d", "s "], ["a", "ir"], ["f", "u"], ["in ", "a "], ["i", "st"], ["be", "t"], ["a", "use "], ["p", "p"], ["b", "ack "], ["it", "t"], ["f", "f"], ["fir", "st "], ["ro", "s"], ["u", "e "], ["f", "il"], ["this ", "place "], ["b", "us"], ["a", "il"], ["for ", "a "], ["re", "ally "], ["ro", "w"], ["e", "ver"], ["en", "c"], ["f", "ood "], [";", " "], ["f", "ul"], ["an", "g"], ["4", " "], ["h", "el"], ["an", "ce "], ["re", "st"], ["m", "ic"], ["un", " "], ["w", "in"], ["at", "es "], ["b", "er "], ["u", "d"], ["..", "."], ["'", " "], ["st", "er"], ["el", "ec"], ["gh", "t "], ["es", "s"], ["pre", "s"], ["c", "oun"], ["v", "is"], ["am", "er"], ["ow", "n"], ["k", "n"], ["l", "ast "], ["p", "u"], ["bec", "ause "], ["b", "er"], ["d", "uc"], ["ar", "y "], ["&", "l"], ["n", "ation"], ["ed ", "a "], ["&l", "t;"], ["h", "er"], ["s", "o"], ["es", "e "], ["b", "ur"], ["\\", "$"], ["2", "00"], ["es", "day "], ["en", "g"], ["m", "u"], ["si", "d"], ["w", "ar"], ["ed ", "by "], ["1", " "], ["e", "t"], ["i ", "was "], ["t ", "of "], ["po", "s"], ["for", "m"], ["m", "a"], ["sp", "ec"], ["a", "q"], ["ac", "e "], ["ing", "s "], ["as", "h"], ["e", "."], ["en", "ts "], ["g", "t;"], ["ch", "e"], ["ev", "en "], ["y", "our "], ["or", "der"], ["&", "gt;"], ["e", "-"], ["3", " "], ["e", "ar"], ["e", "p"], ["amer", "ic"], ["c", "an"], ["o", "ver"], ["of", "f "], ["b", "as"], ["ag", "ain"], ["fri", "end"], ["a", "ur"], ["es ", "and "], ["con", "t"], ["n", "or"], ["r", "a"], ["b", "re"], ["i", "on "], ["som", "e"], ["w", "ay "], ["c", "ould "], ["pl", "ay"], ["fu", "l "], ["u", "."], ["i", "an "], ["ir", "aq"], ["peo", "ple "], ["al", "s "], ["at", "ur"], ["a", ", "], ["h", "om"], ["at", "ing "], ["g", "ood"], ["wor", "ld "], ["c", "re"], ["(reuters) ", "- "], ["p", "ol"], ["s", "l"], ["a ", "l"], ["rest", "aur"], ["th", "r"], ["n", "ing "], ["sh", "i"], ["ch", "i"], ["go", "t "], ["gr", "ou"], ["g", "g"], ["1", "9"], ["p", "ri"], ["in", "to "], ["t", "re"], ["s", "ou"], ["with ", "the "], ["lo", "ve "], ["g", "en"], ["ic", "al "], ["en", "ti"], ["d", "u"], ["ed ", "in "], ["w", "ent "], ["w", "ed"], ["b", "le "], ["d", "o "], ["v", "ing "], ["su", "p"], ["d", "in"], ["s", "y"], ["m", "i"], ["w", "r"], ["tr", "y "], ["m", "is"], ["m", "an "], ["an", "s "], ["on", "s "], ["(", "ap"], ["e", "u"], ["s", "ol"], ["w", "ays "], ["ch", "in"], ["d", "own "], ["al", "so "], ["lin", "e "], ["(ap", ") "], ["c", "lo"], ["re", "por"], ["o", "il "], ["si", "on "], ["t", "oo"], ["i", "al "], ["be", "for"], ["the f", "ood "], ["w", "at"], ["m", "us"], ["s", "in"], ["c", "ol"], ["w", "al"], ["l", "ess "], ["with ", "a "], ["it ", "is "], ["m", "ay "], ["itt", "le "], ["un", "ited "], ["as", "e "], ["ex", "per"], ["st", "ri"], ["es ", "to "], ["day", ", "], ["a", "ch "], ["serv", "ic"], ["i'", "ve "], ["exp", "ec"], ["of", "t "], ["se", "as"], ["li", "on "], ["pre", "sid"], ["e", "t "], ["t", ", "], ["c", "le"], ["2", "0"], ["d", "n't "], [" ", " "], ["e", ".  "], ["ve", "g"], ["of ", "a "], ["is", "h"], ["i", "a "], ["m", "en"], ["pre", "t"], ["r", "ic"], ["ap ", "- "], ["in", "e "], ["y", "or"], ["mak", "e "], ["(ap) ", "ap - "], ["thre", "e "], ["mu", "ch "], ["l", "a"], ["v", "en"], ["s", "ha"], ["i ", "have "], ["re", "vie"], ["sec", "on"], ["from ", "the "], ["y", ". "], ["b", "ar"], ["m", "ade "], ["ur", "s"], ["ou", "s"], ["pr", "of"], ["s", "el"], ["again", "st "], ["t", "t"], ["to", "o "], ["s", "un"], ["new ", "yor"], ["!", "!"], ["wh", "ile "], ["ne", "ver "], ["befor", "e "], ["man", "y "], ["mo", "vi"], ["a ", "h"], ["the f", "ir"], ["u.", "s. "], ["on", "g"], ["e", "ver "], ["s", "m"], ["ex", "c"], ["don", "'t "], ["v", "ed "], ["is", "e "], ["wed", "n"], ["ne", "w"], ["i", "z"], ["s ", "in "], ["pl", "o"], ["v", "es "], ["nation", "al "], ["st", "oc"], ["th", "urs"], ["si", "de "], ["an", "y"], ["b", "an"], ["se", "ar"], ["and ", "i "], ["l", "ar"], ["s", "on "], ["a", "ch"], ["ye", "ar "], ["r", "e "], ["t", "ast"], ["wi", "th"], ["ne", "x"], ["t ", "to "], ["d", "ing "], ["com", "e "], ["sin", "ce "], ["c", "ap"], ["st", "af"], ["wh", "ere "], ["b", "el"], ["f", "ac"], ["b", "le"], ["u", " "], ["s", "ch"], ["ever", "y"], ["c", " "], ["the fir", "st "], ["c", "all"], ["al", "ways "], ["r", "y "], ["mic", "ros"], ["comp", "any "], ["in", "k "], ["n", "ight "], ["si", "g"], ["c", "ame "], ["pret", "ty "], ["ic", "k "], ["h", "ow "], ["ac", "c"], ["in", "di"], ["h", "ol"], ["t", "al"], ["a", "th"], ["ation", "s "], ["t", ". "], ["qu", "ar"], ["exper", "i"], ["..", ". "], ["to ", "be "], ["h", "er "], ["e", "as"], ["ing ", "a "], ["the", "m "], ["sh", "e "], ["pro", "duc"], ["ur", "e "], ["p", "s "], ["wa", "it"], ["new yor", "k "], ["f", "un"], ["z", "z"], ["re", "s "], ["tak", "e "], ["ge", "t"], ["le", "ad"], ["un", "ch "], ["v", "ic"], ["o", "k"], ["c", "our"], ["k", "ill"], ["f", "ood"], ["grou", "p "], ["s", "on"], ["is", "t "], ["6", " "], ["m", "em"], ["in", "ve"], [".  ", "i "], ["er", ", "], ["day", "."], ["es", ". "], ["st", "s "], ["wor", "k"], ["n", "er "], ["i'", "m "], ["ye", "ster"], ["wor", "k "], ["ar", "d"], ["am", "p"], ["y ", "and "], ["go", "ver"], ["l", "and "], ["t", "ic"], ["m", "at"], ["com", "pl"], ["a ", "f"], ["i", "d "], ["j", "u"], ["st", "ill "], ["?", " "], ["g", "am"], ["re", "s"], ["po", "in"], ["to", "p "], ["v", "el"], ["sec", "ur"], ["c", "as"], ["er", "al "], ["av", "or"], ["pric", "es "], ["ne", "t"], ["eu", "ro"], ["g", "ame "], ["s", "us"], ["c", "oo"], ["mar", "ke"], ["n", "ice "], ["su", "m"], ["di", "d "], ["min", "ut"], ["a", "ve "], ["on ", "a "], ["is ", "the "], ["ri", "ght "], ["wee", "k"], ["t", "on "], ["h", "ou"], ["t", "y"], ["an", "ts "], ["s", "ay "], ["americ", "an "], ["ap", "pe"], ["8", " "], ["ough", "t "], ["#39;", " "], [".  ", "the "], ["op", "p"], ["20", "1"], ["gover", "n"], ["fil", "m "], ["movi", "e "], ["b", "oo"], ["as ", "the "], ["nex", "t "], ["micros", "oft "], ["be", "ing "], ["d", "ri"], ["m", "s "], ["fe", "w "], ["le", "g"], ["a", "ir "], ["an", "other "], ["a", "k "], ["g", "er"], ["secon", "d "], ["or", "der "], ["n", "ow "], ["su", "b"], ["gi", "ve "], ["am", "il"], ["man", "ag"], ["bus", "in"], ["i ", "had "], ["ol", "o"], ["l", "es "], ["u", "m "], ["s ", "- "], ["tim", "es "], ["presid", "ent "], ["b", "ro"], ["c", "er"], ["! ", " "], ["f", "e "], ["th", "ir"], ["ing", ", "], ["em", "ent "], ["r", "u"], ["l", "at"], ["e", "i"], ["t", "ro"], ["s", "en"], ["di", "rec"], ["re", "ad"], ["st", "om"], ["7", " "], ["bi", "g "], ["op", "en"], ["br", "it"], ["w", "ell "], ["h", "u"], ["p", "ow"], ["h", "al"], ["as ", "a "], ["e", "f "], ["oun", "c"], ["quot", ";"], ["f", "t "], ["b", "il"], ["re", "f"], ["if ", "you "], ["re", "as"], ["h", "ot"], ["e", "f"], ["off", "ici"], ["in", "cl"], ["thr", "ough "], ["n", "igh"], ["ow", "s "], ["d", ", "], ["p", "ic"], ["on", ", "], ["en", "ter"], ["ed ", "on "], ["se", "e "], ["k", "in"], ["gre", "at"], ["iti", "on "], ["g", "er "], ["mon", "day "], ["bet", "ter "], ["s", "atur"], ["ha", "pp"], ["tu", "esday "], ["\\\"", " "], ["d", "ur"], ["staf", "f "], ["too", "k "], ["united ", "st"], [". ", "\\n\\n"], ["fri", "day "], ["`", "`"], ["me", "di"], ["ch", "ick"], ["g", "l"], ["tion", "s "], ["ch", "am"], ["ro", "l"], ["restaur", "ant "], ["th", "ough "], ["n", "i"], ["r", "us"], ["s", "ays "], ["t", "ain"], ["bo", "th "], ["wee", "k "], ["th", "en "], ["more ", "than "], ["ar", "ound "], ["di", "dn't "], ["ec", "t "], ["ne", "t "], ["p", "al"], ["mil", "lion "], ["we ", "were "], ["wedn", "esday "], ["es", "."], ["am", "az"], ["t", "a"], ["ar", "i"], ["w", "as"], ["v", "al"], ["c", "ur"], ["oun", "d"], ["b", "&gt;"], ["t", "or "], ["pi", "zz"], ["pl", "an"], ["iraq", " "], ["one ", "of the "], ["rec", "or"], ["thurs", "day "], ["1", "0 "], ["the ", "s"], ["ff", "er"], ["es ", "of "], ["n", "ed "], ["b", "est "], ["st", "re"], ["un", "i"], ["pu", "bl"], ["hom", "e "], ["d", "own"], ["secur", "ity "], ["ou", "l"], ["ti", "ve "], ["y", "ing "], ["to ", "re"], ["high", " "], ["cu", "stom"], ["an", "ge "], ["ann", "ounc"], ["fre", "sh"], ["00", " "], ["un", "der"], ["ati", "ve "], ["d", "-"], ["cham", "pi"], ["de", "f"], ["g", "y "], ["te", "ch"], ["e", "very "], ["j", "ap"], ["ch", "ec"], ["revie", "w"], ["c", "ent "], ["dec", "id"], ["b", "all "], ["o", "se "], ["se", "e"], ["l", "ittle "], ["n", "am"], ["that ", "the "], ["kn", "ow "], ["si", "ve "], ["ag", "re"], ["y", "."], ["ac", "t "], ["&lt;", "/"], ["inc", ". "], ["re", "le"], ["pr", "is"], ["p", ". "], ["sp", "or"], ["ak", "e "], ["e", "'s "], ["l", "and"], ["t", "en"], ["op", "en "], ["fin", "d "], ["f", "amil"], ["un", "ch"], ["s ", "are "], ["w", "ash"], ["le", "ast "], ["t", "ar"], ["th", "at"], ["v", "en "], ["h", "ow"], [" ", "quot;"], ["mon", "th"], ["po", "int"], ["es ", "in "], ["t", "on"], ["f", "ound "], ["st", "and"], ["shi", "p "], ["sur", "e "], ["yester", "day "], ["&", " "], ["d", "at"], ["o", "p "], ["to", "day "], ["w", "on"], [", ", "i "], ["th", "ink "], ["he", "ad "], ["te", "am "], ["no", "v"], ["be", "g"], ["lo", "s"], ["9", " "], ["st", "ate "], ["year", "s "], ["sh", "ould "], ["have ", "been "], ["govern", "ment "], ["bet", "we"], ["y", "m"], ["seas", "on "], ["b", "ack"], ["by ", "the "], ["e ", "and "], ["c", "en"], ["w", "ant "], ["dis", "ap"], ["h", "op"], ["ent", "ly "], ["o", "b"], ["betwe", "en "], ["l", "ong "], ["re", "g"], ["ro", "om "], ["'", "re "], ["bre", "ak"], ["de", "fin"], ["l", "ed "], ["s", ".  "], ["op", "er"], ["dr", "in"], ["t", "ly "], ["en", "jo"], ["reuter", "s - "], ["(reuters) ", "reuters - "], ["at ", "least "], ["ad", "d"], ["s", "of"], ["d", "."], [", ", "a "], ["de", "al "], ["o", "t "], ["this ", "is "], ["they ", "have "], ["jo", "h"], ["has ", "been "], ["sh", "ow"], ["s", "w"], ["1", "0"], ["over ", "the "], ["chick", "en "], ["on", "om"], ["con", "si"], ["incl", "ud"], ["min", "ist"], ["au", "str"], ["ser", "ies "], ["e", "p "], ["w", "w"], ["e ", "of "], ["ma", "j"], ["qu", "i"], ["h", "and"], ["re", "l"], ["austr", "ali"], ["m", "er"], ["n", "s "], ["t", "able "], ["se", "t "], ["h", "ar"], ["h", "or"], ["v", "ir"], ["ed ", "and "], ["n", "um"], ["elec", "tion "], ["m", "id"], ["a ", "and "], ["li", "gh"], ["r", "un"], ["ing ", "and "], ["to ", "get "], ["ter", "s "], ["t", "en "], ["t", "old "], ["b", "a"], ["ing", ". "], ["ab", "ly "], ["f", "our "], ["su", "c"], ["z", " "], ["par", "t"], ["t", "it"], ["di", "ffer"], ["su", "ch "], ["cl", "u"], ["li", "m"], ["m", "ent"], ["sear", "ch "], ["se", "em"], ["no", "thing "], ["loo", "k "], ["or", "s "], ["euro", "pe"], ["loo", "king "], ["ul", "ar "], ["d", "oll"], ["ro", "om"], ["ir", "e "], ["e", "y "], ["to ", "a "], ["stor", "y "], ["rus", "si"], ["tech", "n"], ["mil", "it"], ["ec", "onom"], ["un", "der "], ["some", "thing "], ["out ", "of "], ["wash", "ing"], ["d", ". "], ["b", "ad "], ["n", "er"], ["pr", "ice "], ["d", "ro"], ["em", "p"], ["united st", "ates "], ["f", "ast "], ["k", "id"], ["om", "e "], ["l", "y"], ["m", "ain"], ["form", "er "], ["mus", "ic "], ["d", "ic"], ["ed", ". "], ["s", "a"], ["oo", "l "], ["s", "ed "], ["v", "o"], ["st", "u"], ["u", "al "], ["w", "ell"], ["do", "es "], ["sof", "tw"], ["t", "-"], ["ap", "p"], ["se", "ver"], ["had ", "a "], ["o", "s "], ["ful", "l"], ["g", "row"], ["sh", "or"], ["le", "ag"], ["the b", "est "], [", ", "which "], ["m", "ed"], ["s ", "the "], ["s", "it"], ["t", "."], ["st", "ar "], ["pl", "ay "], ["t ", "and "], ["sel", "f "], [",", "00"], ["re", "tur"], ["si", "on"], ["s", "k"], ["con", "f"], ["al", "ity "], ["ab", "le"], ["when ", "i "], ["veg", "as "], ["s", "and"], ["ch", "il"], ["per", "cent "], ["em", "ber "], ["b", "or"], ["d", "ar"], ["i", "v"], ["go", "ing "], ["sou", "th "], ["inter", "national "], ["quot", "; "], ["a", ". "], ["busin", "ess "], ["service ", "was "], ["m", "y"], ["m", "ed "], ["ro", "c"], ["vic", "tor"], ["l", "ow"], ["will ", "be "], ["can", "ad"], ["ed", ", "], ["order", "ed "], ["f", "ic"], ["e", "g"], ["p", ") "], ["w", "in "], ["h", "it "], ["in", "v"], ["friend", "ly "], ["w", "il"], ["us", "ed "], ["su", "l"], ["all ", "the "], ["thir", "d "], ["\\", "u"], ["p", "ur"], ["del", "ici"], ["p", "ec"], ["t", "un"], ["ar", "ly "], ["end", "ed "], ["en", "s "], ["experi", "ence "], ["of ", "its "], ["he", "ar"], ["e", "at "], ["si", "m"], ["they ", "were "], ["inter", "net "], ["cont", "in"], ["t", "el"], ["s", "ay"], ["a", "red "], ["pr", "om"], ["ke", "y "], ["it", "al "], ["brit", "ish "], ["spec", "i"], ["for", "c"], ["comp", "an"], ["ph", "one "], ["'", "' "], ["ic", "h"], ["w", "om"], ["wor", "l"], ["expec", "t"], ["f", "avor"], ["ag", "o "], ["loc", "ation "], ["es ", "are "], ["ex", "ec"], ["hel", "p "], ["f", "o"], ["en", "ough "], ["char", "ac"], ["every", "thing "], ["u", "ally "], ["in", "du"], ["on", "d"], ["wor", "th "], ["h", "our"], ["ne", "ed"], ["ho", "st"], ["tr", "ad"], ["l", "aw"], ["li", "fe "], ["bu", "il"], ["b", "s "], ["they ", "are "], ["lar", "g"], ["ver", "s"], ["minist", "er "], ["e", "y"], [")", ", "], ["p", "en"], ["li", "ght "], ["st", "er "], ["this ", "plac"], ["sh", "ar"], ["peo", "pl"], ["sun", "day "], ["h", "un"], ["ser", "i"], ["p", "at"], ["sc", "i"], ["l", "ing "], ["l", "unch "], ["wa", "it "], ["a l", "ittle "], ["-", "-"], ["f", "oo"], ["fri", "end "], ["ous", "ly "], ["sp", "e"], ["sc", "re"], ["the ", "c"], ["with", "out "], ["re", "comm"], ["a ", "#39;s "], ["ad", "v"], ["hel", "p"], ["i", "b"], ["i", "on"], ["a ", "few "], ["pu", "t "], ["g", "oo"], ["is", "ra"], ["inve", "stor"], ["s", "ing"], ["th", "ose "], ["ar", "ri"], ["is", "su"], ["le", "ft "], ["read", "y "], ["fre", "e "], ["v", " "], ["b", "om"], ["p", "er "], ["s ", "for "], ["per", "f"], ["comp", "u"], ["one ", "of "], ["he", "ad"], ["d", "ou"], ["r", "is"], ["char", "g"], ["recor", "d "], ["men", "u "], ["n", "y "], [",00", "0 "], ["cl", "ai"], ["hou", "se "], ["ge", "ts "], ["softw", "are "], ["ai", "d "], ["2", "0 "], ["or", "e"], ["tr", "y"], ["de", "m"], ["de", "vel"], ["techn", "olo"], ["n", "ic"], ["p", "e "], ["al", "most "], ["europe", "an "], ["ti", "me"], ["end", "ing "], ["por", "t "], ["compu", "ter "], ["f", "ur"], ["in", "to the "], ["aw", "es"], ["maj", "or "], ["on", "ce "], ["hi", "m "], ["del", "i"], ["sever", "al "], ["\\u", "00"], ["d", "en"], ["d", "ate "], ["defin", "it"], ["mak", "es "], ["marke", "t "], ["l", "l "], ["gen", "er"], ["or", "y "], ["l", "ong"], ["le", "ad "], ["ot", "t"], ["quar", "ter"], ["aw", "ay "], ["g", "ar"], ["per", "son"], ["nor", "th "], ["h", "ard "], ["u", "de "], ["al", "e "], ["at", "mo"], ["h", "ur"], ["p", "ast "], ["z", "e "], [". ", "we "], ["rec", "ei"], ["c", "e"], ["and ", "a "], ["fi", "ve "], ["sp", "ace "], ["r", "un "], ["atmo", "sp"], ["it", "ch"], ["qu", "ick"], ["t", "e "], ["pl", "y "], ["t", "ac"], ["p", "ut"], ["t", "ou"], ["st", "em"], ["cor", "p. "], ["decid", "ed to "], ["definit", "ely "], ["is", "ion "], ["call", "ed "], ["lo", "b"], ["pro", "vi"], ["c", "ri"], ["c", "up "], ["c", "o "], ["po", "st"], ["h", "um"], ["m", "ay"], ["ap", "pro"], ["win", "d"], ["sand", "w"], ["p", "ot"], ["ed ", "with "], ["em", "plo"], ["satur", "day "], ["st", "at"], ["un", "t"], ["sh", "ow "], ["1", "."], ["ri", "gh"], ["leag", "ue "], ["/", "full"], ["p", "ay "], ["as", "h "], ["ther", "n "], ["an", "s"], ["ol", "ym"], ["experi", "enc"], ["a ", "re"], ["was", "n't "], ["larg", "est "], ["w", "est "], ["se", "p"], ["ter", "r"], ["as", "ked "], ["stor", "e "], ["quar", "ter "], ["st", "y"], ["ac", "tu"], ["bas", "ed "], ["differ", "ent "], ["v", "ot"], ["ag", "ain "], ["hal", "f "], ["/full", "quot"], ["at", "ely "], ["m", "ust "], ["w", "ay"], ["fr", "en"], ["pro", "b"], ["c", "ity "], ["e", "ach "], ["fi", "el"], ["ing", "ly "], ["pri", "me "], ["b", "and "], ["t", "ain "], ["ts ", "of "], ["clo", "se "], ["th", "ese "], ["ic", "s "], ["ear", "ly "], ["a ", "new "], ["inve", "st"], ["wh", "y "], ["s, ", "and "], ["stoc", "ks "], ["happ", "y "], ["s", "wee"], ["cu", "t "], ["p", "op"], ["exec", "u"], ["the f", "il"], ["fresh", " "], ["ed", "eral "], ["sc", "or"], ["h", "us"], ["ac", "ks "], ["a", "'s "], ["f", "oll"], ["fr", "on"], ["mak", "er "], ["ar", "s "], ["f", "all"], ["k", "s"], ["as", "s "], ["g", "ir"], ["t", "ail"], ["you ", "can "], ["on", "line "], ["i ", "am "], ["au", "th"], ["k", "ore"], ["iti", "on"], ["h", "our "], ["f", "fe"], ["el", "s "], ["str", "uc"], ["g", "an"], ["sear", "ch"], ["le", "t "], ["veg", "as"], ["fe", "el "], ["dr", "am"], ["joh", "n "], ["goo", "g"], ["to ", "s"], ["revie", "w "], ["j", "ec"], ["t", "ex"], ["bel", "i"], ["per", "for"], ["victor", "y "], ["f", "ar "], ["er ", "and "], ["pl", "eas"], ["ab", " "], ["chi", "ef "], ["prof", "it "], ["t", "ball "], ["ch", "o"], ["p", "ul"], ["bu", "ffe"], ["this place ", "is "], ["rele", "as"], ["3", "0 "], ["st", "ud"], ["bu", "y "], ["minut", "es "], ["devel", "op"], ["c", "ali"], ["would ", "be "], ["d", "y "], ["n", "ec"], ["s", "ing "], ["off", "er"], ["5", "0 "], ["p", "ass"], ["b", "ar "], ["t", "end"], ["st", "on "], ["pro", "ble"], ["s. ", "the "], ["dur", "ing "], ["h", "on"], ["announc", "ed "], ["c", "ar "], ["t", "om"], ["rol", "l"], ["d", "om"], ["washing", "ton "],
[...]
